[unused4] 100
[unused5] 100
[unused6] 100
[unused7] 100
[unused8] 100
[unused9] 100
[unused10] 100
[unused11] 100
[unused12] 100
[unused13] 100
[unused14] 100
[unused15] 100
[unused16] 100
[unused17] 100
[unused18] 100
[unused19] 100
[unused20] 100
[unused21] 100
[unused22] 100
[unused23] 100
[unused24] 100
[unused25] 100
[unused26] 100
[unused27] 100
[unused28] 100
[unused29] 100
[unused30] 100
[unused31] 100
[unused32] 100
[unused33] 100
[unused34] 100
[unused35] 100
[unused36] 100
[unused37] 100
[unused38] 100
[unused39] 100
[unused40] 100
[unused41] 100
[unused42] 100
[unused43] 100
[unused44] 100
[unused45] 100
[unused46] 100
[unused47] 100
[unused48] 100
[unused49] 100
[unused50] 100
[unused51] 100
[unused52] 100
[unused53] 100
[unused54] 100
[unused55] 100
[unused56] 100
[unused57] 100
[unused58] 100
[unused59] 100
[unused60] 100
[unused61] 100
[unused62] 100
[unused63] 100
[unused64] 100
[unused65] 100
[unused66] 100
[unused67] 100
[unused68] 100
[unused69] 100
[unused70] 100
[unused71] 100
[unused72] 100
[unused73] 100
[unused74] 100
[unused75] 100
[unused76] 100
[unused77] 100
[unused78] 100
[unused79] 100
[unused80] 100
[unused81] 100
[unused82] 100
[unused83] 100
[unused84] 100
[unused85] 100
[unused86] 100
[unused87] 100
[unused88] 100
[unused89] 100
[unused90] 100
[unused91] 100
[unused92] 100
[unused93] 100
[unused94] 100
[unused95] 100
[unused96] 100
[unused97] 100
[unused98] 100
[unused99] 100
[UNK] 100
[CLS] 100
[SEP] 100
[MASK] 100
<S> 100
<T> 100
! 100
" 100
# 100
$ 100
% 100
& 100
' 100
( 100
) 100
* 100
+ 100
, 100
- 100
. 100
/ 100
0 100
1 100
2 100
3 100
4 100
5 100
6 100
7 100
8 100
9 100
: 100
; 100
< 100
= 100
> 100
? 100
@ 100
A 100
B 100
C 100
D 100
E 100
F 100
G 100
H 100
I 100
J 100
K 100
L 100
M 100
N 100
O 100
P 100
Q 100
R 100
S 100
T 100
U 100
V 100
W 100
X 100
Y 100
Z 100
[ 100
\ 100
] 100
^ 100
_ 100
` 100
a 100
b 100
c 100
d 100
e 100
f 100
g 100
h 100
i 100
j 100
k 100
l 100
m 100
n 100
o 100
p 100
q 100
r 100
s 100
t 100
u 100
v 100
w 100
x 100
y 100
z 100
{ 100
| 100
} 100
~ 100
  100
¡ 100
¢ 100
£ 100
¤ 100
¥ 100
¦ 100
§ 100
¨ 100
© 100
ª 100
« 100
¬ 100
® 100
¯ 100
° 100
± 100
² 100
³ 100
´ 100
µ 100
¶ 100
· 100
¸ 100
¹ 100
º 100
» 100
¼ 100
½ 100
¾ 100
¿ 100
À 100
Á 100
Â 100
Ã 100
Ä 100
Å 100
Æ 100
Ç 100
È 100
É 100
Ê 100
Ë 100
Ì 100
Í 100
Î 100
Ï 100
Ð 100
Ñ 100
Ò 100
Ó 100
Ô 100
Õ 100
Ö 100
× 100
Ø 100
Ù 100
Ú 100
Û 100
Ü 100
Ý 100
Þ 100
ß 100
à 100
á 100
â 100
ã 100
ä 100
å 100
æ 100
ç 100
è 100
é 100
ê 100
ë 100
ì 100
í 100
î 100
ï 100
ð 100
ñ 100
ò 100
ó 100
ô 100
õ 100
ö 100
÷ 100
ø 100
ù 100
ú 100
û 100
ü 100
ý 100
þ 100
ÿ 100
Ā 100
ā 100
Ă 100
ă 100
Ą 100
ą 100
Ć 100
ć 100
Ĉ 100
ĉ 100
Ċ 100
ċ 100
Č 100
č 100
Ď 100
ď 100
Đ 100
đ 100
Ē 100
ē 100
ĕ 100
Ė 100
ė 100
Ę 100
ę 100
Ě 100
ě 100
Ĝ 100
ĝ 100
Ğ 100
ğ 100
Ġ 100
ġ 100
Ģ 100
ģ 100
Ĥ 100
ĥ 100
Ħ 100
ħ 100
Ĩ 100
ĩ 100
Ī 100
ī 100
ĭ 100
Į 100
į 100
İ 100
ı 100
ĳ 100
Ĵ 100
ĵ 100
Ķ 100
ķ 100
ĸ 100
Ĺ 100
ĺ 100
Ļ 100
ļ 100
Ľ 100
ľ 100
Ł 100
ł 100
Ń 100
ń 100
Ņ 100
ņ 100
Ň 100
ň 100
ŉ 100
Ŋ 100
ŋ 100
Ō 100
ō 100
ŏ 100
Ő 100
ő 100
Œ 100
œ 100
Ŕ 100
ŕ 100
ŗ 100
Ř 100
ř 100
Ś 100
ś 100
Ŝ 100
ŝ 100
Ş 100
ş 100
Š 100
š 100
Ţ 100
ţ 100
Ť 100
ť 100
Ŧ 100
ŧ 100
Ũ 100
ũ 100
Ū 100
ū 100
ŭ 100
Ů 100
ů 100
Ű 100
ű 100
Ų 100
ų 100
Ŵ 100
ŵ 100
ŷ 100
Ÿ 100
Ź 100
ź 100
Ż 100
ż 100
Ž 100
ž 100
ſ 100
Ɓ 100
Ɔ 100
Ɗ 100
Ə 100
Ɛ 100
Ƒ 100
ƒ 100
Ɩ 100
Ɨ 100
Ƙ 100
ƙ 100
ƚ 100
Ơ 100
ơ 100
ƣ 100
Ƥ 100
Ư 100
ư 100
Ʋ 100
ƴ 100
Ʒ 100
Ƹ 100
Ƽ 100
ǀ 100
ǁ 100
Ǎ 100
ǎ 100
Ǐ 100
ǐ 100
Ǒ 100
ǒ 100
Ǔ 100
ǔ 100
ǚ 100
ǝ 100
Ǫ 100
ǫ 100
Ǵ 100
ǵ 100
Ǹ 100
ǹ 100
ǽ 100
ȃ 100
Ȋ 100
ȋ 100
ȏ 100
ȗ 100
Ș 100
ș 100
Ț 100
ț 100
ȫ 100
ȱ 100
Ʉ 100
ɑ 100
ɒ 100
ɓ 100
ɔ 100
ɖ 100
ɗ 100
ə 100
ɛ 100
ɜ 100
ɡ 100
ɢ 100
ɣ 100
ɦ 100
ɨ 100
ɩ 100
ɪ 100
ɫ 100
ɲ 100
ɾ 100
ʃ 100
ʉ 100
ʊ 100
ʋ 100
ʌ 100
ʏ 100
ʒ 100
ʔ 100
ʕ 100
ʖ 100
ʘ 100
ʜ 100
ʹ 100
ʺ 100
ʻ 100
ʼ 100
ʾ 100
ʿ 100
˂ 100
˃ 100
ˆ 100
ˇ 100
ˈ 100
ˉ 100
ˊ 100
ˋ 100
ˌ 100
ˎ 100
ː 100
˗ 100
˘ 100
˙ 100
˚ 100
˛ 100
˜ 100
˝ 100
ˬ 100
ˮ 100
˵ 100
˼ 100
˾ 100
̀ 100
́ 100
̂ 100
̃ 100
̄ 100
̅ 100
̆ 100
̇ 100
̈ 100
̉ 100
̊ 100
̋ 100
̌ 100
̍ 100
̒ 100
̓ 100
̔ 100
̟ 100
̡ 100
̣ 100
̥ 100
̦ 100
̧ 100
̨ 100
̩ 100
̫ 100
̭ 100
̮ 100
̰ 100
̱ 100
̳ 100
̵ 100
̶ 100
̷ 100
͑ 100
͒ 100
͕ 100
͜ 100
͡ 100
ͻ 100
; 100
΄ 100
Ά 100
· 100
Έ 100
Ή 100
Ί 100
Ό 100
Ύ 100
Ώ 100
ΐ 100
Α 100
Β 100
Γ 100
Δ 100
Ε 100
Ζ 100
Η 100
Θ 100
Ι 100
Κ 100
Λ 100
Μ 100
Ν 100
Ξ 100
Ο 100
Π 100
Ρ 100
Σ 100
Τ 100
Υ 100
Φ 100
Χ 100
Ψ 100
Ω 100
Ϊ 100
ά 100
έ 100
ή 100
ί 100
ΰ 100
α 100
β 100
γ 100
δ 100
ε 100
ζ 100
η 100
θ 100
ι 100
κ 100
λ 100
μ 100
ν 100
ξ 100
ο 100
π 100
ρ 100
ς 100
σ 100
τ 100
υ 100
φ 100
χ 100
ψ 100
ω 100
ϊ 100
ϋ 100
ό 100
ύ 100
ώ 100
ϑ 100
ϕ 100
Ϙ 100
ϟ 100
ϩ 100
Ϫ 100
ϫ 100
ϭ 100
Ϯ 100
ϵ 100
Ͻ 100
Ё 100
Ђ 100
Ѓ 100
Є 100
Ѕ 100
І 100
Ї 100
Ј 100
Љ 100
Њ 100
Ћ 100
Ќ 100
Ѝ 100
Ў 100
Џ 100
А 100
Б 100
В 100
Г 100
Д 100
Е 100
Ж 100
З 100
И 100
Й 100
К 100
Л 100
М 100
Н 100
О 100
П 100
Р 100
С 100
Т 100
У 100
Ф 100
Х 100
Ц 100
Ч 100
Ш 100
Щ 100
Ъ 100
Ы 100
Ь 100
Э 100
Ю 100
Я 100
а 100
б 100
в 100
г 100
д 100
е 100
ж 100
з 100
и 100
й 100
к 100
л 100
м 100
н 100
о 100
п 100
р 100
с 100
т 100
у 100
ф 100
х 100
ц 100
ч 100
ш 100
щ 100
ъ 100
ы 100
ь 100
э 100
ю 100
я 100
ѐ 100
ё 100
ђ 100
ѓ 100
є 100
ѕ 100
і 100
ї 100
ј 100
љ 100
њ 100
ћ 100
ќ 100
ѝ 100
ў 100
џ 100
ѡ 100
ѣ 100
ѧ 100
ѫ 100
Ѳ 100
ѳ 100
ѵ 100
Ѽ 100
Ґ 100
ґ 100
Ғ 100
ғ 100
ҕ 100
Җ 100
җ 100
ҙ 100
Қ 100
қ 100
Ҝ 100
ҝ 100
Ҡ 100
ҡ 100
Ң 100
ң 100
ҥ 100
ҧ 100
Ҫ 100
ҫ 100
Ү 100
ү 100
Ұ 100
ұ 100
Ҳ 100
ҳ 100
ҵ 100
Ҷ 100
ҷ 100
Ҹ 100
ҹ 100
Һ 100
һ 100
ҽ 100
ҿ 100
Ӏ 100
ӊ 100
ӓ 100
ӕ 100
Ә 100
ә 100
ӛ 100
Ӝ 100
ӟ 100
Ӣ 100
ӣ 100
ӥ 100
ӧ 100
Ө 100
ө 100
Ӯ 100
ӯ 100
ӱ 100
ԁ 100
ԑ 100
ԥ 100
Ա 100
Բ 100
Գ 100
Դ 100
Ե 100
Զ 100
Է 100
Ը 100
Թ 100
Ժ 100
Ի 100
Լ 100
Խ 100
Ծ 100
Կ 100
Հ 100
Ձ 100
Ղ 100
Ճ 100
Մ 100
Յ 100
Ն 100
Շ 100
Ո 100
Չ 100
Պ 100
Ջ 100
Ռ 100
Ս 100
Վ 100
Տ 100
Ր 100
Ց 100
Ւ 100
Փ 100
Ք 100
Օ 100
Ֆ 100
ՙ 100
՚ 100
՛ 100
՜ 100
՝ 100
՞ 100
՟ 100
ա 100
բ 100
գ 100
դ 100
ե 100
զ 100
է 100
ը 100
թ 100
ժ 100
ի 100
լ 100
խ 100
ծ 100
կ 100
հ 100
ձ 100
ղ 100
ճ 100
մ 100
յ 100
ն 100
շ 100
ո 100
չ 100
պ 100
ջ 100
ռ 100
ս 100
վ 100
տ 100
ր 100
ց 100
ւ 100
փ 100
ք 100
օ 100
ֆ 100
և 100
։ 100
֊ 100
֏ 100
ְ 100
ֱ 100
ֲ 100
ֳ 100
ִ 100
ֵ 100
ֶ 100
ַ 100
ָ 100
ֹ 100
ֻ 100
ּ 100
־ 100
ֿ 100
׀ 100
ׁ 100
ׂ 100
׃ 100
א 100
ב 100
ג 100
ד 100
ה 100
ו 100
ז 100
ח 100
ט 100
י 100
ך 100
כ 100
ל 100
ם 100
מ 100
ן 100
נ 100
ס 100
ע 100
ף 100
פ 100
ץ 100
צ 100
ק 100
ר 100
ש 100
ת 100
װ 100
ױ 100
ײ 100
׳ 100
״ 100
، 100
؍ 100
؎ 100
؏ 100
ؐ 100
ؑ 100
ؒ 100
ؓ 100
ؔ 100
ؕ 100
؛ 100
؟ 100
ء 100
آ 100
أ 100
ؤ 100
إ 100
ئ 100
ا 100
ب 100
ة 100
ت 100
ث 100
ج 100
ح 100
خ 100
د 100
ذ 100
ر 100
ز 100
س 100
ش 100
ص 100
ض 100
ط 100
ظ 100
ع 100
غ 100
ػ 100
ؿ 100
ـ 100
ف 100
ق 100
ك 100
ل 100
م 100
ن 100
ه 100
و 100
ى 100
ي 100
ً 100
ٌ 100
ٍ 100
َ 100
ُ 100
ِ 100
ّ 100
ْ 100
ٓ 100
ٔ 100
ٖ 100
ٗ 100
ٙ 100
ٚ 100
ٛ 100
ٝ 100
ٞ 100
٠ 100
١ 100
٢ 100
٣ 100
٤ 100
٥ 100
٦ 100
٧ 100
٨ 100
٩ 100
٪ 100
٫ 100
٬ 100
٭ 100
ٰ 100
ٱ 100
ٲ 100
ٴ 100
ٹ 100
ٺ 100
ٻ 100
ټ 100
ٽ 100
پ 100
ٿ 100
ڀ 100
ځ 100
ڃ 100
ڄ 100
څ 100
چ 100
ڇ 100
ڈ 100
ډ 100
ڊ 100
ڌ 100
ڍ 100
ڏ 100
ڑ 100
ړ 100
ڕ 100
ږ 100
ژ 100
ڙ 100
ښ 100
ڠ 100
ڤ 100
ڦ 100
ک 100
ڪ 100
ګ 100
ڭ 100
گ 100
ڱ 100
ڳ 100
ڵ 100
ں 100
ڻ 100
ڼ 100
ھ 100
ۀ 100
ہ 100
ۂ 100
ۃ 100
ۆ 100
ۇ 100
ۈ 100
ۋ 100
ی 100
ۍ 100
ې 100
ے 100
ۓ 100
۔ 100
ە 100
ۖ 100
ۗ 100
ۘ 100
ۙ 100
ۚ 100
ۛ 100
۞ 100
۟ 100
ۡ 100
ۢ 100
ۤ 100
ۥ 100
ۦ 100
۩ 100
۰ 100
۱ 100
۲ 100
۳ 100
۴ 100
۵ 100
۶ 100
۷ 100
۸ 100
۹ 100
۽ 100
۾ 100
܀ 100
܈ 100
܊ 100
ܡ 100
ܢ 100
ݣ 100
ހ 100
ށ 100
ނ 100
ރ 100
ބ 100
ޅ 100
ކ 100
އ 100
ވ 100
މ 100
ފ 100
ދ 100
ތ 100
ގ 100
ސ 100
ޑ 100
ޓ 100
ޔ 100
ޖ 100
ޗ 100
ަ 100
ާ 100
ި 100
ީ 100
ު 100
ެ 100
ް 100
ߋ 100
ँ 100
ं 100
ः 100
ऄ 100
अ 100
आ 100
इ 100
ई 100
उ 100
ऊ 100
ऋ 100
ऍ 100
ऎ 100
ए 100
ऐ 100
ऑ 100
ओ 100
औ 100
क 100
ख 100
ग 100
घ 100
ङ 100
च 100
छ 100
ज 100
झ 100
ञ 100
ट 100
ठ 100
ड 100
ढ 100
ण 100
त 100
थ 100
द 100
ध 100
न 100
ऩ 100
प 100
फ 100
ब 100
भ 100
म 100
य 100
र 100
ऱ 100
ल 100
ळ 100
व 100
श 100
ष 100
स 100
ह 100
़ 100
ऽ 100
ा 100
ि 100
ी 100
ु 100
ू 100
ृ 100
ॅ 100
ॆ 100
े 100
ै 100
ॉ 100
ॊ 100
ो 100
ौ 100
् 100
ॐ 100
॑ 100
॓ 100
क़ 100
ख़ 100
ग़ 100
ज़ 100
ड़ 100
ढ़ 100
फ़ 100
य़ 100
। 100
॥ 100
० 100
१ 100
२ 100
३ 100
४ 100
५ 100
६ 100
७ 100
८ 100
९ 100
॰ 100
ॲ 100
ॴ 100
ঁ 100
ং 100
ঃ 100
অ 100
আ 100
ই 100
ঈ 100
উ 100
ঊ 100
ঋ 100
এ 100
ঐ 100
঑ 100
ও 100
ঔ 100
ক 100
খ 100
গ 100
ঘ 100
ঙ 100
চ 100
ছ 100
জ 100
ঝ 100
ঞ 100
ট 100
ঠ 100
ড 100
ঢ 100
ণ 100
ত 100
থ 100
দ 100
ধ 100
ন 100
঩ 100
প 100
ফ 100
ব 100
ভ 100
ম 100
য 100
র 100
ল 100
শ 100
ষ 100
স 100
হ 100
় 100
া 100
ি 100
ী 100
ু 100
ূ 100
ৃ 100
ে 100
ৈ 100
ো 100
ৌ 100
্ 100
ৎ 100
ৗ 100
ড় 100
ঢ় 100
য় 100
০ 100
১ 100
২ 100
৩ 100
৪ 100
৫ 100
৬ 100
৭ 100
৮ 100
৯ 100
ৰ 100
ৱ 100
৲ 100
৳ 100
৷ 100
৹ 100
ਂ 100
ਃ 100
ਅ 100
ਆ 100
ਇ 100
ਈ 100
ਉ 100
ਊ 100
ਏ 100
ਐ 100
ਓ 100
ਔ 100
ਕ 100
ਖ 100
ਗ 100
ਘ 100
ਙ 100
ਚ 100
ਛ 100
ਜ 100
ਝ 100
ਞ 100
ਟ 100
ਠ 100
ਡ 100
ਢ 100
ਣ 100
ਤ 100
ਥ 100
ਦ 100
ਧ 100
ਨ 100
ਪ 100
ਫ 100
ਬ 100
ਭ 100
ਮ 100
ਯ 100
ਰ 100
ਲ 100
ਲ਼ 100
ਵ 100
ਸ਼ 100
ਸ 100
ਹ 100
਼ 100
ਾ 100
ਿ 100
ੀ 100
ੁ 100
ੂ 100
ੇ 100
ੈ 100
ੋ 100
ੌ 100
੍ 100
੔ 100
ਖ਼ 100
ਗ਼ 100
ਜ਼ 100
ੜ 100
ਫ਼ 100
੦ 100
੧ 100
੨ 100
੩ 100
੪ 100
੫ 100
੬ 100
੭ 100
੮ 100
੯ 100
ੰ 100
ੱ 100
ੲ 100
ੳ 100
ੴ 100
ઁ 100
ં 100
ઃ 100
઄ 100
અ 100
આ 100
ઇ 100
ઈ 100
ઉ 100
ઊ 100
ઋ 100
ઍ 100
એ 100
ઐ 100
ઑ 100
ઓ 100
ઔ 100
ક 100
ખ 100
ગ 100
ઘ 100
ચ 100
છ 100
જ 100
ઝ 100
ઞ 100
ટ 100
ઠ 100
ડ 100
ઢ 100
ણ 100
ત 100
થ 100
દ 100
ધ 100
ન 100
઩ 100
પ 100
ફ 100
બ 100
ભ 100
મ 100
ય 100
ર 100
લ 100
ળ 100
વ 100
શ 100
ષ 100
સ 100
હ 100
઼ 100
ા 100
િ 100
ી 100
ુ 100
ૂ 100
ૃ 100
ૅ 100
ે 100
ૈ 100
ૉ 100
૊ 100
ો 100
ૌ 100
્ 100
ૐ 100
૦ 100
૧ 100
૨ 100
૩ 100
૪ 100
૫ 100
૬ 100
૭ 100
૮ 100
૯ 100
ଁ 100
ଂ 100
ଃ 100
ଅ 100
ଆ 100
ଇ 100
ଈ 100
ଉ 100
ଊ 100
ଋ 100
ଏ 100
ଐ 100
ଓ 100
ଔ 100
କ 100
ଖ 100
ଗ 100
ଘ 100
ଙ 100
ଚ 100
ଛ 100
ଜ 100
ଝ 100
ଞ 100
ଟ 100
ଠ 100
ଡ 100
ଢ 100
ଣ 100
ତ 100
ଥ 100
ଦ 100
ଧ 100
ନ 100
ପ 100
ଫ 100
ବ 100
ଭ 100
ମ 100
ଯ 100
ର 100
ଲ 100
ଳ 100
ଵ 100
ଶ 100
ଷ 100
ସ 100
ହ 100
଼ 100
ା 100
ି 100
ୀ 100
ୁ 100
ୂ 100
ୃ 100
େ 100
ୈ 100
ୋ 100
ୌ 100
୍ 100
ୖ 100
ୗ 100
ଡ଼ 100
ଢ଼ 100
ୟ 100
୤ 100
୦ 100
୧ 100
୨ 100
୩ 100
୪ 100
୫ 100
୬ 100
୭ 100
୮ 100
୯ 100
ୱ 100
ஃ 100
அ 100
ஆ 100
இ 100
ஈ 100
உ 100
ஊ 100
஋ 100
஌ 100
எ 100
ஏ 100
ஐ 100
ஒ 100
ஓ 100
ஔ 100
க 100
ங 100
ச 100
ஜ 100
ஞ 100
ட 100
஡ 100
஢ 100
ண 100
த 100
஥ 100
஦ 100
஧ 100
ந 100
ன 100
ப 100
஬ 100
ம 100
ய 100
ர 100
ற 100
ல 100
ள 100
ழ 100
வ 100
ஶ 100
ஷ 100
ஸ 100
ஹ 100
ா 100
ி 100
ீ 100
ு 100
ூ 100
ெ 100
ே 100
ை 100
௉ 100
ொ 100
ோ 100
ௌ 100
் 100
ௐ 100
௦ 100
௧ 100
௨ 100
௫ 100
௬ 100
௮ 100
ఁ 100
ం 100
ః 100
అ 100
ఆ 100
ఇ 100
ఈ 100
ఉ 100
ఊ 100
ఋ 100
ఎ 100
ఏ 100
ఐ 100
఑ 100
ఒ 100
ఓ 100
ఔ 100
క 100
ఖ 100
గ 100
ఘ 100
ఙ 100
చ 100
ఛ 100
జ 100
ఝ 100
ఞ 100
ట 100
ఠ 100
డ 100
ఢ 100
ణ 100
త 100
థ 100
ద 100
ధ 100
న 100
ప 100
ఫ 100
బ 100
భ 100
మ 100
య 100
ర 100
ఱ 100
ల 100
ళ 100
వ 100
శ 100
ష 100
స 100
హ 100
ా 100
ి 100
ీ 100
ు 100
ూ 100
ృ 100
ె 100
ే 100
ై 100
ొ 100
ో 100
ౌ 100
్ 100
ౖ 100
౦ 100
౧ 100
౨ 100
౩ 100
౪ 100
౫ 100
౬ 100
౭ 100
౮ 100
౯ 100
ಂ 100
ಃ 100
಄ 100
ಅ 100
ಆ 100
ಇ 100
ಈ 100
ಉ 100
ಊ 100
ಋ 100
ಎ 100
ಏ 100
ಐ 100
ಒ 100
ಓ 100
ಔ 100
ಕ 100
ಖ 100
ಗ 100
ಘ 100
ಙ 100
ಚ 100
ಛ 100
ಜ 100
ಝ 100
ಞ 100
ಟ 100
ಠ 100
ಡ 100
ಢ 100
ಣ 100
ತ 100
ಥ 100
ದ 100
ಧ 100
ನ 100
ಪ 100
ಫ 100
ಬ 100
ಭ 100
ಮ 100
ಯ 100
ರ 100
ಲ 100
ಳ 100
ವ 100
ಶ 100
ಷ 100
ಸ 100
ಹ 100
಼ 100
ಾ 100
ಿ 100
ೀ 100
ು 100
ೂ 100
ೃ 100
ೆ 100
ೇ 100
ೈ 100
ೊ 100
ೋ 100
ೌ 100
್ 100
ೕ 100
ೖ 100
೦ 100
೧ 100
೨ 100
೩ 100
೪ 100
೫ 100
೬ 100
೭ 100
೮ 100
೯ 100
ഀ 100
ം 100
ഃ 100
അ 100
ആ 100
ഇ 100
ഈ 100
ഉ 100
ഊ 100
ഋ 100
ഌ 100
എ 100
ഏ 100
ഐ 100
ഒ 100
ഓ 100
ഔ 100
ക 100
ഖ 100
ഗ 100
ഘ 100
ങ 100
ച 100
ഛ 100
ജ 100
ഝ 100
ഞ 100
ട 100
ഠ 100
ഡ 100
ഢ 100
ണ 100
ത 100
ഥ 100
ദ 100
ധ 100
ന 100
പ 100
ഫ 100
ബ 100
ഭ 100
മ 100
യ 100
ര 100
റ 100
ല 100
ള 100
ഴ 100
വ 100
ശ 100
ഷ 100
സ 100
ഹ 100
ാ 100
ി 100
ീ 100
ു 100
ൂ 100
ൃ 100
െ 100
േ 100
ൈ 100
ൊ 100
ോ 100
ൌ 100
് 100
ൗ 100
൦ 100
൧ 100
൨ 100
൩ 100
൪ 100
൫ 100
൬ 100
൮ 100
൯ 100
ൺ 100
ൻ 100
ർ 100
ൽ 100
ൾ 100
ං 100
ඃ 100
අ 100
ආ 100
ඇ 100
ඈ 100
ඉ 100
ඊ 100
උ 100
ඌ 100
ඍ 100
එ 100
ඒ 100
ඓ 100
ඔ 100
ඕ 100
ඖ 100
ක 100
ඛ 100
ග 100
ඝ 100
ඞ 100
ඟ 100
ච 100
ඡ 100
ජ 100
ඤ 100
ඥ 100
ට 100
ඨ 100
ඩ 100
ඪ 100
ණ 100
ඬ 100
ත 100
ථ 100
ද 100
ධ 100
න 100
ඳ 100
ප 100
ඵ 100
බ 100
භ 100
ම 100
ඹ 100
ය 100
ර 100
ල 100
ව 100
ශ 100
ෂ 100
ස 100
හ 100
ළ 100
ෆ 100
් 100
ා 100
ැ 100
ෑ 100
ි 100
ී 100
ු 100
ූ 100
ෘ 100
ෙ 100
ේ 100
ෛ 100
ො 100
ෝ 100
ෞ 100
ෟ 100
෮ 100
ෲ 100
෴ 100
฀ 100
ก 100
ข 100
ค 100
ฅ 100
ฆ 100
ง 100
จ 100
ฉ 100
ช 100
ซ 100
ฌ 100
ญ 100
ฎ 100
ฏ 100
ฐ 100
ฑ 100
ฒ 100
ณ 100
ด 100
ต 100
ถ 100
ท 100
ธ 100
น 100
บ 100
ป 100
ผ 100
ฝ 100
พ 100
ฟ 100
ภ 100
ม 100
ย 100
ร 100
ฤ 100
ล 100
ว 100
ศ 100
ษ 100
ส 100
ห 100
ฬ 100
อ 100
ฮ 100
ฯ 100
ะ 100
ั 100
า 100
ำ 100
ิ 100
ี 100
ึ 100
ื 100
ุ 100
ู 100
ฺ 100
฿ 100
เ 100
แ 100
โ 100
ใ 100
ไ 100
ๆ 100
็ 100
่ 100
้ 100
๊ 100
๋ 100
์ 100
ํ 100
๏ 100
๐ 100
๑ 100
๒ 100
๓ 100
๔ 100
๕ 100
๖ 100
๗ 100
๘ 100
๙ 100
๚ 100
๛ 100
ກ 100
ຂ 100
ຄ 100
຅ 100
ງ 100
ຈ 100
ຊ 100
ຌ 100
ຍ 100
ຐ 100
ຑ 100
ດ 100
ຕ 100
ຖ 100
ທ 100
ນ 100
ບ 100
ປ 100
ຜ 100
ຝ 100
ພ 100
ຟ 100
ມ 100
ຢ 100
ຣ 100
ລ 100
ວ 100
ສ 100
ຫ 100
ອ 100
ຮ 100
ຯ 100
ະ 100
ັ 100
າ 100
ຳ 100
ິ 100
ີ 100
ຶ 100
ື 100
ຸ 100
ູ 100
ົ 100
ຼ 100
ຽ 100
ເ 100
ແ 100
ໂ 100
ໃ 100
ໄ 100
ໆ 100
່ 100
້ 100
໊ 100
໋ 100
໌ 100
ໍ 100
໐ 100
໑ 100
໒ 100
໓ 100
໔ 100
໕ 100
ໜ 100
ໝ 100
༄ 100
༅ 100
་ 100
༌ 100
། 100
༎ 100
༠ 100
༡ 100
༢ 100
༣ 100
༤ 100
༥ 100
༦ 100
༧ 100
༨ 100
༩ 100
༺ 100
༼ 100
༽ 100
ཀ 100
ཁ 100
ག 100
ང 100
ཅ 100
ཆ 100
ཇ 100
ཉ 100
ཊ 100
ཌ 100
ཎ 100
ཏ 100
ཐ 100
ད 100
ན 100
པ 100
ཕ 100
བ 100
མ 100
ཙ 100
ཚ 100
ཛ 100
ཝ 100
ཞ 100
ཟ 100
འ 100
ཡ 100
ར 100
ལ 100
ཤ 100
ས 100
ཧ 100
ཨ 100
ཱ 100
ི 100
ུ 100
ེ 100
ོ 100
ཾ 100
ྋ 100
ྐ 100
ྒ 100
ྔ 100
ྕ 100
ྗ 100
ྙ 100
ྟ 100
ྡ 100
ྣ 100
ྤ 100
ྥ 100
ྦ 100
ྨ 100
ྩ 100
ྫ 100
ྭ 100
ྰ 100
ྱ 100
ྲ 100
ླ 100
ྷ 100
က 100
ခ 100
ဂ 100
ဃ 100
င 100
စ 100
ဆ 100
ဇ 100
ဈ 100
ဉ 100
ည 100
ဋ 100
ဌ 100
ဍ 100
ဎ 100
ဏ 100
တ 100
ထ 100
ဒ 100
ဓ 100
န 100
ပ 100
ဖ 100
ဗ 100
ဘ 100
မ 100
ယ 100
ရ 100
လ 100
ဝ 100
သ 100
ဟ 100
ဠ 100
အ 100
ဢ 100
ဣ 100
ဤ 100
ဥ 100
ဦ 100
ဧ 100
ဩ 100
ဪ 100
ါ 100
ာ 100
ိ 100
ီ 100
ု 100
ူ 100
ေ 100
ဲ 100
ဳ 100
ဴ 100
ဵ 100
ံ 100
့ 100
း 100
္ 100
် 100
ျ 100
ြ 100
ွ 100
ှ 100
ဿ 100
၀ 100
၁ 100
၂ 100
၃ 100
၄ 100
၅ 100
၆ 100
၇ 100
၈ 100
၉ 100
၊ 100
။ 100
၌ 100
၍ 100
၎ 100
၏ 100
ၐ 100
ၚ 100
ၝ 100
ၞ 100
ၠ 100
ၡ 100
ၢ 100
ၣ 100
ၤ 100
ၥ 100
ၧ 100
ၱ 100
ၲ 100
ၳ 100
ၵ 100
ၶ 100
ၷ 100
ၸ 100
ၺ 100
ၼ 100
ၽ 100
ၾ 100
ၿ 100
ႀ 100
ႁ 100
ႂ 100
ႃ 100
ႄ 100
ႆ 100
ႇ 100
ႈ 100
ႉ 100
ႊ 100
ႏ 100
႐ 100
႒ 100
႓ 100
႔ 100
႕ 100
ႛ 100
ა 100
ბ 100
გ 100
დ 100
ე 100
ვ 100
ზ 100
თ 100
ი 100
კ 100
ლ 100
მ 100
ნ 100
ო 100
პ 100
ჟ 100
რ 100
ს 100
ტ 100
უ 100
ფ 100
ქ 100
ღ 100
ყ 100
შ 100
ჩ 100
ც 100
ძ 100
წ 100
ჭ 100
ხ 100
ჯ 100
ჰ 100
ჱ 100
ჲ 100
ᄀ 100
ᄂ 100
ᄃ 100
ᄅ 100
ᄆ 100
ᄇ 100
ᄉ 100
ᄋ 100
ᄌ 100
ᄍ 100
ᄎ 100
ᄏ 100
ᄒ 100
ᅠ 100
ᅮ 100
ᅲ 100
ᅳ 100
ᅵ 100
ᆞ 100
ሀ 100
ሁ 100
ሂ 100
ሃ 100
ሄ 100
ህ 100
ሆ 100
ሇ 100
ለ 100
ሉ 100
ሊ 100
ላ 100
ሌ 100
ል 100
ሎ 100
ሏ 100
ሐ 100
ሑ 100
ሒ 100
ሓ 100
ሔ 100
ሕ 100
ሖ 100
ሗ 100
መ 100
ሙ 100
ሚ 100
ማ 100
ሜ 100
ም 100
ሞ 100
ሟ 100
ሠ 100
ሡ 100
ሢ 100
ሣ 100
ሤ 100
ሥ 100
ሦ 100
ረ 100
ሩ 100
ሪ 100
ራ 100
ሬ 100
ር 100
ሮ 100
ሯ 100
ሰ 100
ሱ 100
ሲ 100
ሳ 100
ሴ 100
ስ 100
ሶ 100
ሷ 100
ሸ 100
ሹ 100
ሺ 100
ሻ 100
ሼ 100
ሽ 100
ሾ 100
ሿ 100
ቀ 100
ቁ 100
ቂ 100
ቃ 100
ቄ 100
ቅ 100
ቆ 100
ቈ 100
ቊ 100
ቋ 100
ቍ 100
ቐ 100
ቓ 100
ቕ 100
በ 100
ቡ 100
ቢ 100
ባ 100
ቤ 100
ብ 100
ቦ 100
ቧ 100
ቨ 100
ቪ 100
ቫ 100
ቬ 100
ቭ 100
ቮ 100
ተ 100
ቱ 100
ቲ 100
ታ 100
ቴ 100
ት 100
ቶ 100
ቷ 100
ቸ 100
ቹ 100
ቺ 100
ቻ 100
ቼ 100
ች 100
ቾ 100
ቿ 100
ኀ 100
ኃ 100
ኄ 100
ኅ 100
ኋ 100
ነ 100
ኑ 100
ኒ 100
ና 100
ኔ 100
ን 100
ኖ 100
ኗ 100
ኘ 100
ኙ 100
ኚ 100
ኛ 100
ኜ 100
ኝ 100
ኞ 100
ኟ 100
አ 100
ኡ 100
ኢ 100
ኣ 100
ኤ 100
እ 100
ኦ 100
ኧ 100
ከ 100
ኩ 100
ኪ 100
ካ 100
ኬ 100
ክ 100
ኮ 100
ኰ 100
ኲ 100
ኳ 100
ኴ 100
ኵ 100
ኸ 100
ኹ 100
ኺ 100
ኻ 100
ኼ 100
ኽ 100
ኾ 100
ዀ 100
ዃ 100
ዅ 100
ወ 100
ዉ 100
ዊ 100
ዋ 100
ዌ 100
ው 100
ዎ 100
ዐ 100
ዑ 100
ዒ 100
ዓ 100
ዔ 100
ዕ 100
ዖ 100
ዘ 100
ዙ 100
ዚ 100
ዛ 100
ዜ 100
ዝ 100
ዞ 100
ዟ 100
ዠ 100
ዡ 100
ዢ 100
ዣ 100
ዤ 100
ዥ 100
ዦ 100
የ 100
ዩ 100
ዪ 100
ያ 100
ዬ 100
ይ 100
ዮ 100
ዯ 100
ደ 100
ዱ 100
ዲ 100
ዳ 100
ዴ 100
ድ 100
ዶ 100
ዷ 100
ዽ 100
ጀ 100
ጁ 100
ጂ 100
ጃ 100
ጄ 100
ጅ 100
ጆ 100
ጇ 100
ገ 100
ጉ 100
ጊ 100
ጋ 100
ጌ 100
ግ 100
ጎ 100
ጐ 100
ጒ 100
ጓ 100
ጕ 100
ጠ 100
ጡ 100
ጢ 100
ጣ 100
ጤ 100
ጥ 100
ጦ 100
ጧ 100
ጨ 100
ጩ 100
ጪ 100
ጫ 100
ጬ 100
ጭ 100
ጮ 100
ጰ 100
ጲ 100
ጳ 100
ጴ 100
ጵ 100
ጶ 100
ጸ 100
ጹ 100
ጺ 100
ጻ 100
ጼ 100
ጽ 100
ጾ 100
ጿ 100
ፀ 100
ፁ 100
ፂ 100
ፃ 100
ፄ 100
ፅ 100
ፆ 100
ፇ 100
ፈ 100
ፉ 100
ፊ 100
ፋ 100
ፌ 100
ፍ 100
ፎ 100
ፏ 100
ፐ 100
ፑ 100
ፒ 100
ፓ 100
ፔ 100
ፕ 100
ፖ 100
፠ 100
፡ 100
። 100
፣ 100
፤ 100
፥ 100
፦ 100
፧ 100
፨ 100
፩ 100
፪ 100
፫ 100
፬ 100
፭ 100
፮ 100
፯ 100
፰ 100
፱ 100
፲ 100
፳ 100
፴ 100
፻ 100
ᎏ 100
Ꭹ 100
Ꮃ 100
Ꮳ 100
ᐅ 100
ᐈ 100
ᐉ 100
ᐛ 100
ᗜ 100
᛫ 100
ក 100
ខ 100
គ 100
ឃ 100
ង 100
ច 100
ឆ 100
ជ 100
ឈ 100
ញ 100
ដ 100
ឋ 100
ឌ 100
ឍ 100
ណ 100
ត 100
ថ 100
ទ 100
ធ 100
ន 100
ប 100
ផ 100
ព 100
ភ 100
ម 100
យ 100
រ 100
ល 100
វ 100
ឝ 100
ឞ 100
ស 100
ហ 100
ឡ 100
អ 100
ឥ 100
ឦ 100
ឧ 100
ឩ 100
ឪ 100
ឫ 100
ឬ 100
ឭ 100
ឮ 100
ឯ 100
ឰ 100
ឱ 100
ឲ 100
ឳ 100
ា 100
ិ 100
ី 100
ឹ 100
ឺ 100
ុ 100
ូ 100
ួ 100
ើ 100
ឿ 100
ៀ 100
េ 100
ែ 100
ៃ 100
ោ 100
ៅ 100
ំ 100
ះ 100
ៈ 100
៉ 100
៊ 100
់ 100
៌ 100
៍ 100
៎ 100
៏ 100
័ 100
្ 100
។ 100
៕ 100
៖ 100
ៗ 100
៙ 100
៚ 100
៛ 100
៝ 100
០ 100
១ 100
២ 100
៣ 100
៤ 100
៥ 100
៦ 100
៧ 100
៨ 100
៩ 100
ᥙ 100
᧐ 100
Ა 100
Ბ 100
Დ 100
Ე 100
Ვ 100
Ზ 100
Თ 100
Ი 100
Ლ 100
Ო 100
Პ 100
Რ 100
Უ 100
Ღ 100
Შ 100
ᴀ 100
ᴅ 100
ᴇ 100
ᴐ 100
ᴗ 100
ᴥ 100
ᴦ 100
ᴰ 100
ᴴ 100
ᵕ 100
ᵾ 100
ḃ 100
ḍ 100
ḏ 100
Ḑ 100
ḑ 100
ḓ 100
Ḕ 100
Ḥ 100
ḥ 100
Ḩ 100
ḩ 100
ḷ 100
ḽ 100
ḿ 100
ṃ 100
ṅ 100
ṇ 100
ṍ 100
Ṛ 100
ṛ 100
ṟ 100
Ṣ 100
ṣ 100
ṭ 100
ẅ 100
ẍ 100
ẕ 100
ẖ 100
Ạ 100
ạ 100
Ả 100
ả 100
Ấ 100
ấ 100
Ầ 100
ầ 100
Ẩ 100
ẩ 100
Ẫ 100
ẫ 100
Ậ 100
ậ 100
Ắ 100
ắ 100
Ằ 100
ằ 100
Ẳ 100
ẳ 100
Ẵ 100
ẵ 100
Ặ 100
ặ 100
Ẹ 100
ẹ 100
Ẻ 100
ẻ 100
Ẽ 100
ẽ 100
Ế 100
ế 100
Ề 100
ề 100
Ể 100
ể 100
Ễ 100
ễ 100
Ệ 100
ệ 100
Ỉ 100
ỉ 100
Ị 100
ị 100
Ọ 100
ọ 100
Ỏ 100
ỏ 100
Ố 100
ố 100
Ồ 100
ồ 100
Ổ 100
ổ 100
Ỗ 100
ỗ 100
Ộ 100
ộ 100
Ớ 100
ớ 100
Ờ 100
ờ 100
Ở 100
ở 100
Ỡ 100
ỡ 100
Ợ 100
ợ 100
Ụ 100
ụ 100
Ủ 100
ủ 100
Ứ 100
ứ 100
Ừ 100
ừ 100
Ử 100
ử 100
Ữ 100
ữ 100
Ự 100
ự 100
Ỳ 100
ỳ 100
ỵ 100
Ỷ 100
ỷ 100
Ỹ 100
ỹ 100
ἀ 100
ἁ 100
ἂ 100
ἃ 100
ἄ 100
ἅ 100
Ἀ 100
Ἁ 100
Ἂ 100
Ἄ 100
Ἅ 100
ἐ 100
ἑ 100
ἓ 100
ἔ 100
ἕ 100
Ἐ 100
Ἑ 100
Ἔ 100
Ἕ 100
ἠ 100
ἡ 100
ἢ 100
ἣ 100
ἤ 100
ἥ 100
ἦ 100
ἧ 100
Ἠ 100
Ἡ 100
Ἦ 100
ἰ 100
ἱ 100
ἴ 100
ἵ 100
ἶ 100
ἷ 100
Ἰ 100
Ἱ 100
ὀ 100
ὁ 100
ὃ 100
ὄ 100
ὅ 100
Ὀ 100
Ὁ 100
Ὄ 100
Ὅ 100
ὐ 100
ὑ 100
ὔ 100
ὕ 100
ὖ 100
ὗ 100
Ὑ 100
Ὕ 100
ὡ 100
ὥ 100
ὦ 100
ὧ 100
Ὡ 100
ὰ 100
ὲ 100
ὴ 100
ὶ 100
ὸ 100
ὺ 100
ὼ 100
ᾠ 100
ᾧ 100
ᾳ 100
ᾶ 100
ῃ 100
ῆ 100
ῇ 100
ῖ 100
ῦ 100
ῳ 100
ῶ 100
ῷ 100
  100
  100
  100
  100
  100
  100
  100
  100
‐ 100
‑ 100
‒ 100
– 100
— 100
― 100
‖ 100
‗ 100
‘ 100
’ 100
‚ 100
‛ 100
“ 100
” 100
„ 100
‟ 100
† 100
‡ 100
• 100
‣ 100
․ 100
‥ 100
… 100
‧ 100
  100
  100
  100
‰ 100
′ 100
″ 100
‵ 100
‹ 100
› 100
※ 100
‼ 100
‾ 100
‿ 100
⁂ 100
⁃ 100
⁄ 100
⁇ 100
⁈ 100
⁉ 100
⁊ 100
⁎ 100
⁞ 100
⁰ 100
⁴ 100
⁽ 100
⁾ 100
ⁿ 100
₂ 100
₃ 100
₍ 100
₎ 100
₡ 100
₣ 100
₤ 100
₦ 100
₨ 100
₩ 100
₪ 100
₫ 100
€ 100
₭ 100
₮ 100
₱ 100
₴ 100
₵ 100
₸ 100
₹ 100
₺ 100
₽ 100
⃝ 100
⃞ 100
⃣ 100
℃ 100
℉ 100
ℓ 100
№ 100
℗ 100
™ 100
Ω 100
⅓ 100
⅔ 100
⅛ 100
Ⅰ 100
Ⅱ 100
Ⅲ 100
Ⅳ 100
Ⅴ 100
Ⅵ 100
Ⅶ 100
Ⅷ 100
ⅰ 100
ⅼ 100
ↄ 100
← 100
↑ 100
→ 100
↓ 100
↔ 100
↕ 100
↖ 100
↗ 100
↘ 100
↙ 100
↠ 100
↩ 100
↪ 100
↲ 100
↳ 100
↵ 100
↺ 100
↻ 100
⇄ 100
⇅ 100
⇆ 100
⇌ 100
⇐ 100
⇑ 100
⇒ 100
⇓ 100
⇔ 100
⇖ 100
⇛ 100
⇢ 100
⇥ 100
⇦ 100
⇧ 100
⇨ 100
⇩ 100
⇪ 100
⇱ 100
⇽ 100
∀ 100
∂ 100
∃ 100
∅ 100
∆ 100
∇ 100
∈ 100
∋ 100
∎ 100
∏ 100
∑ 100
− 100
∕ 100
∗ 100
∘ 100
∙ 100
√ 100
∝ 100
∞ 100
∟ 100
∠ 100
∣ 100
∥ 100
∧ 100
∨ 100
∩ 100
∪ 100
∫ 100
∮ 100
∴ 100
∵ 100
∶ 100
∷ 100
∼ 100
∽ 100
≃ 100
≅ 100
≈ 100
≒ 100
≠ 100
≡ 100
≤ 100
≥ 100
≦ 100
≧ 100
≪ 100
≫ 100
≮ 100
≯ 100
≲ 100
⊂ 100
⊃ 100
⊆ 100
⊕ 100
⊗ 100
⊙ 100
⊞ 100
⊥ 100
⊰ 100
⊱ 100
⊲ 100
⊹ 100
⊿ 100
⋅ 100
⋆ 100
⋈ 100
⋘ 100
⋙ 100
⋮ 100
⋯ 100
⌀ 100
⌈ 100
⌊ 100
⌋ 100
⌒ 100
⌘ 100
⌚ 100
⌛ 100
⌦ 100
⌫ 100
⌬ 100
⌹ 100
⎛ 100
⎜ 100
⎝ 100
⎞ 100
⎟ 100
⎠ 100
⎡ 100
⎢ 100
⎣ 100
⎤ 100
⎥ 100
⎦ 100
⎪ 100
⎯ 100
⏎ 100
⏩ 100
⏪ 100
⏬ 100
⏰ 100
⏱ 100
⏲ 100
⏳ 100
⏺ 100
␣ 100
␤ 100
␮ 100
① 100
② 100
③ 100
④ 100
⑤ 100
⑥ 100
⑦ 100
⑧ 100
⑨ 100
⑩ 100
⑪ 100
⑫ 100
⑬ 100
⑭ 100
⑴ 100
⑵ 100
⑶ 100
⑷ 100
⑸ 100
⑹ 100
⑺ 100
⒈ 100
⒉ 100
⒊ 100
⒋ 100
⒌ 100
Ⓒ 100
ⓒ 100
─ 100
━ 100
│ 100
┃ 100
┆ 100
┇ 100
┈ 100
┊ 100
┌ 100
┏ 100
┐ 100
┑ 100
┓ 100
└ 100
┗ 100
┘ 100
┛ 100
├ 100
┝ 100
┣ 100
┤ 100
┬ 100
┴ 100
┼ 100
╁ 100
╂ 100
╃ 100
╋ 100
═ 100
║ 100
╕ 100
╗ 100
╚ 100
╝ 100
╠ 100
╥ 100
╬ 100
╭ 100
╮ 100
╯ 100
╰ 100
╱ 100
╳ 100
╹ 100
▀ 100
▁ 100
▂ 100
▃ 100
▄ 100
▅ 100
▆ 100
▇ 100
█ 100
▊ 100
▋ 100
▌ 100
▍ 100
▏ 100
▐ 100
░ 100
▒ 100
▓ 100
■ 100
□ 100
▢ 100
▣ 100
▧ 100
▨ 100
▪ 100
▫ 100
▬ 100
▮ 100
▯ 100
▲ 100
△ 100
▴ 100
▶ 100
▷ 100
▸ 100
▹ 100
► 100
▻ 100
▼ 100
▽ 100
▾ 100
▿ 100
◀ 100
◁ 100
◄ 100
◆ 100
◇ 100
◈ 100
◉ 100
◊ 100
○ 100
◌ 100
◍ 100
◎ 100
● 100
◐ 100
◑ 100
◕ 100
◗ 100
◘ 100
◙ 100
◠ 100
◡ 100
◢ 100
◣ 100
◤ 100
◦ 100
◯ 100
◳ 100
◻ 100
◼ 100
◾ 100
☀ 100
☁ 100
☂ 100
☃ 100
☄ 100
★ 100
☆ 100
☉ 100
☎ 100
☏ 100
☐ 100
☑ 100
☒ 100
☔ 100
☕ 100
☘ 100
☚ 100
☛ 100
☜ 100
☝ 100
☞ 100
☟ 100
☠ 100
☢ 100
☣ 100
☦ 100
☩ 100
☪ 100
☬ 100
☭ 100
☮ 100
☯ 100
☰ 100
☸ 100
☹ 100
☺ 100
☻ 100
☼ 100
☽ 100
☾ 100
♀ 100
♂ 100
♆ 100
♈ 100
♉ 100
♊ 100
♋ 100
♌ 100
♍ 100
♎ 100
♏ 100
♐ 100
♑ 100
♒ 100
♓ 100
♔ 100
♕ 100
♖ 100
♗ 100
♘ 100
♚ 100
♛ 100
♞ 100
♠ 100
♡ 100
♢ 100
♣ 100
♤ 100
♥ 100
♦ 100
♧ 100
♨ 100
♩ 100
♪ 100
♫ 100
♬ 100
♭ 100
♯ 100
♰ 100
♻ 100
♿ 100
⚇ 100
⚐ 100
⚑ 100
⚓ 100
⚔ 100
⚕ 100
⚖ 100
⚘ 100
⚙ 100
⚛ 100
⚜ 100
⚠ 100
⚡ 100
⚪ 100
⚫ 100
⚬ 100
⚭ 100
⚽ 100
⛄ 100
⛅ 100
⛈ 100
⛔ 100
⛰ 100
⛱ 100
⛳ 100
⛵ 100
⛷ 100
✁ 100
✂ 100
✄ 100
✅ 100
✆ 100
✈ 100
✉ 100
✊ 100
✋ 100
✌ 100
✍ 100
✎ 100
✏ 100
✐ 100
✒ 100
✓ 100
✔ 100
✕ 100
✖ 100
✗ 100
✘ 100
✚ 100
✜ 100
✝ 100
✞ 100
✟ 100
✠ 100
✡ 100
✢ 100
✣ 100
✤ 100
✥ 100
✦ 100
✧ 100
✨ 100
✩ 100
✪ 100
✫ 100
✬ 100
✭ 100
✮ 100
✯ 100
✰ 100
✱ 100
✲ 100
✳ 100
✴ 100
✵ 100
✶ 100
✷ 100
✸ 100
✹ 100
✺ 100
✻ 100
✽ 100
✾ 100
✿ 100
❀ 100
❁ 100
❂ 100
❃ 100
❄ 100
❅ 100
❆ 100
❇ 100
❈ 100
❉ 100
❊ 100
❋ 100
❌ 100
❍ 100
❎ 100
❏ 100
❐ 100
❑ 100
❒ 100
❓ 100
❕ 100
❖ 100
❗ 100
❘ 100
❙ 100
❚ 100
❛ 100
❝ 100
❞ 100
❣ 100
❤ 100
❥ 100
❦ 100
❧ 100
❮ 100
❯ 100
❰ 100
❱ 100
❶ 100
❷ 100
❸ 100
❹ 100
❺ 100
➀ 100
➁ 100
➂ 100
➇ 100
➊ 100
➋ 100
➌ 100
➍ 100
➎ 100
➏ 100
➔ 100
➕ 100
➖ 100
➘ 100
➙ 100
➛ 100
➜ 100
➝ 100
➞ 100
➟ 100
➠ 100
➡ 100
➢ 100
➣ 100
➤ 100
➥ 100
➦ 100
➧ 100
➨ 100
➩ 100
➪ 100
➫ 100
➭ 100
➮ 100
➯ 100
➰ 100
➲ 100
➳ 100
➸ 100
➺ 100
➻ 100
➽ 100
➾ 100
⟨ 100
⟩ 100
⟰ 100
⟶ 100
⠀ 100
⤵ 100
⤻ 100
⦁ 100
⦿ 100
⩽ 100
⩾ 100
⫹ 100
⫺ 100
⫻ 100
⫽ 100
⬄ 100
⬅ 100
⬆ 100
⬇ 100
⬍ 100
⬛ 100
⬤ 100
⬩ 100
⭐ 100
⭕ 100
Ɀ 100
Ⲉ 100
ⲟ 100
⳿ 100
⸗ 100
⸜ 100
⸝ 100
⸢ 100
⼀ 100
　 100
、 100
。 100
〃 100
々 100
〆 100
〇 100
〈 100
〉 100
《 100
》 100
「 100
」 100
『 100
』 100
【 100
】 100
〒 100
〓 100
〔 100
〕 100
〖 100
〗 100
〚 100
〛 100
〜 100
〝 100
〞 100
〟 100
〰 100
〽 100
ぁ 100
あ 100
ぃ 100
い 100
ぅ 100
う 100
ぇ 100
え 100
ぉ 100
お 100
か 100
が 100
き 100
ぎ 100
く 100
ぐ 100
け 100
げ 100
こ 100
ご 100
さ 100
ざ 100
し 100
じ 100
す 100
ず 100
せ 100
ぜ 100
そ 100
ぞ 100
た 100
だ 100
ち 100
っ 100
つ 100
づ 100
て 100
で 100
と 100
ど 100
な 100
に 100
ぬ 100
ね 100
の 100
は 100
ば 100
ぱ 100
ひ 100
び 100
ぴ 100
ふ 100
ぶ 100
ぷ 100
へ 100
べ 100
ぺ 100
ほ 100
ぼ 100
ぽ 100
ま 100
み 100
む 100
め 100
も 100
ゃ 100
や 100
ゅ 100
ゆ 100
ょ 100
よ 100
ら 100
り 100
る 100
れ 100
ろ 100
ゎ 100
わ 100
ゐ 100
を 100
ん 100
゙ 100
゚ 100
゛ 100
゜ 100
ゝ 100
ゞ 100
ァ 100
ア 100
ィ 100
イ 100
ゥ 100
ウ 100
ェ 100
エ 100
ォ 100
オ 100
カ 100
ガ 100
キ 100
ギ 100
ク 100
グ 100
ケ 100
ゲ 100
コ 100
ゴ 100
サ 100
ザ 100
シ 100
ジ 100
ス 100
ズ 100
セ 100
ゼ 100
ソ 100
ゾ 100
タ 100
ダ 100
チ 100
ヂ 100
ッ 100
ツ 100
ヅ 100
テ 100
デ 100
ト 100
ド 100
ナ 100
ニ 100
ヌ 100
ネ 100
ノ 100
ハ 100
バ 100
パ 100
ヒ 100
ビ 100
ピ 100
フ 100
ブ 100
プ 100
ヘ 100
ベ 100
ペ 100
ホ 100
ボ 100
ポ 100
マ 100
ミ 100
ム 100
メ 100
モ 100
ャ 100
ヤ 100
ュ 100
ユ 100
ョ 100
ヨ 100
ラ 100
リ 100
ル 100
レ 100
ロ 100
ヮ 100
ワ 100
ヱ 100
ヲ 100
ン 100
ヴ 100
ヵ 100
ヶ 100
・ 100
ー 100
ヽ 100
ヾ 100
ㄉ 100
ㄍ 100
ㄚ 100
ㄛ 100
ㄟ 100
ㄤ 100
ㄥ 100
ㄦ 100
ㄧ 100
ㄨ 100
ㄩ 100
ㅂ 100
ㅅ 100
ㅇ 100
ㅋ 100
ㅎ 100
ㅠ 100
ㅤ 100
ㆍ 100
㈠ 100
㈡ 100
㈱ 100
㊣ 100
㌀ 100
㍉ 100
㎍ 100
㎎ 100
㎖ 100
㎛ 100
㎜ 100
㎝ 100
㎡ 100
㑹 100
㗎 100
㫖 100
㮣 100
㱢 100
㹰 100
一 100
丁 100
七 100
万 100
丈 100
三 100
上 100
下 100
不 100
与 100
丐 100
丑 100
专 100
且 100
丕 100
世 100
丘 100
丙 100
业 100
丛 100
东 100
丝 100
丞 100
丟 100
両 100
丢 100
两 100
严 100
並 100
丧 100
丨 100
个 100
丫 100
中 100
丰 100
串 100
临 100
丶 100
丸 100
丹 100
为 100
主 100
丼 100
丽 100
举 100
丿 100
乂 100
乃 100
久 100
乆 100
么 100
义 100
之 100
乌 100
乍 100
乎 100
乏 100
乐 100
乒 100
乓 100
乔 100
乖 100
乗 100
乘 100
乙 100
乜 100
九 100
乞 100
也 100
习 100
乡 100
书 100
乩 100
买 100
乱 100
乳 100
乾 100
亀 100
亂 100
了 100
予 100
争 100
事 100
二 100
亍 100
于 100
亏 100
云 100
互 100
亓 100
五 100
井 100
亘 100
亙 100
亚 100
些 100
亜 100
亞 100
亟 100
亡 100
亢 100
交 100
亥 100
亦 100
产 100
亨 100
亩 100
享 100
京 100
亭 100
亮 100
亰 100
亲 100
亳 100
亵 100
人 100
亾 100
亿 100
什 100
仁 100
仃 100
仄 100
仅 100
仆 100
仇 100
今 100
介 100
仍 100
从 100
仏 100
仑 100
仓 100
仔 100
仕 100
他 100
仗 100
付 100
仙 100
仝 100
仞 100
仟 100
仡 100
代 100
令 100
以 100
仨 100
仪 100
仫 100
们 100
仮 100
仰 100
仲 100
件 100
价 100
仺 100
任 100
份 100
仿 100
企 100
伉 100
伊 100
伍 100
伎 100
伏 100
伐 100
休 100
伕 100
众 100
优 100
伙 100
会 100
伝 100
伞 100
伟 100
传 100
伢 100
伤 100
伦 100
伪 100
伫 100
伯 100
估 100
伱 100
伴 100
伶 100
伸 100
伺 100
似 100
伽 100
佃 100
但 100
佇 100
佈 100
位 100
低 100
住 100
佐 100
佑 100
体 100
佔 100
何 100
佗 100
佘 100
余 100
佚 100
佛 100
作 100
佝 100
佞 100
佟 100
你 100
佢 100
佣 100
佤 100
佩 100
佬 100
佯 100
佰 100
佳 100
併 100
佶 100
佷 100
佸 100
佹 100
佺 100
佻 100
佼 100
佽 100
使 100
侀 100
侃 100
侄 100
來 100
侈 100
例 100
侍 100
侏 100
侑 100
侖 100
侗 100
侘 100
供 100
依 100
侠 100
価 100
侣 100
侥 100
侦 100
侧 100
侨 100
侪 100
侬 100
侭 100
侮 100
侯 100
侵 100
侶 100
侷 100
便 100
係 100
促 100
俄 100
俊 100
俎 100
俏 100
俐 100
俑 100
俗 100
俘 100
俚 100
保 100
俞 100
俟 100
俠 100
信 100
俣 100
俨 100
俩 100
俪 100
俬 100
俭 100
修 100
俯 100
俱 100
俳 100
俵 100
俸 100
俺 100
俾 100
倆 100
倉 100
個 100
倌 100
倍 100
倏 100
們 100
倒 100
倔 100
倖 100
倘 100
候 100
倚 100
倜 100
借 100
倡 100
倣 100
値 100
倦 100
倨 100
倩 100
倪 100
倫 100
倬 100
倭 100
倶 100
倹 100
债 100
值 100
倾 100
偃 100
假 100
偈 100
偉 100
偌 100
偎 100
偏 100
偕 100
做 100
停 100
健 100
偲 100
側 100
偵 100
偶 100
偷 100
偻 100
偽 100
偿 100
傀 100
傅 100
傈 100
傍 100
傑 100
傘 100
備 100
傚 100
傛 100
傜 100
傝 100
傢 100
傣 100
傥 100
储 100
傩 100
催 100
傭 100
傲 100
傳 100
債 100
傷 100
傻 100
傾 100
僅 100
僉 100
働 100
像 100
僑 100
僕 100
僖 100
僚 100
僞 100
僟 100
僥 100
僧 100
僭 100
僮 100
僱 100
僳 100
僵 100
價 100
僻 100
儀 100
儂 100
億 100
儆 100
儉 100
儋 100
儒 100
儕 100
儘 100
儚 100
償 100
儡 100
優 100
儲 100
儴 100
儷 100
儼 100
儿 100
兀 100
允 100
兂 100
元 100
兄 100
充 100
兆 100
兇 100
先 100
光 100
克 100
兌 100
免 100
兎 100
児 100
兑 100
兒 100
兔 100
兖 100
兗 100
兘 100
党 100
兜 100
兢 100
入 100
內 100
全 100
兩 100
兪 100
八 100
公 100
六 100
兮 100
兰 100
共 100
兲 100
关 100
兴 100
兵 100
其 100
具 100
典 100
兹 100
养 100
兼 100
兽 100
冀 100
内 100
円 100
冇 100
冈 100
冉 100
冊 100
册 100
再 100
冑 100
冒 100
冕 100
冖 100
冗 100
写 100
军 100
农 100
冠 100
冢 100
冤 100
冥 100
冦 100
冧 100
冨 100
冩 100
冪 100
冫 100
冬 100
冯 100
冰 100
冱 100
冲 100
决 100
冴 100
况 100
冶 100
冷 100
冻 100
冼 100
冽 100
净 100
凄 100
准 100
凇 100
凈 100
凉 100
凋 100
凌 100
凍 100
减 100
凑 100
凛 100
凜 100
凝 100
几 100
凡 100
凤 100
処 100
凧 100
凪 100
凫 100
凭 100
凯 100
凰 100
凱 100
凳 100
凶 100
凸 100
凹 100
出 100
击 100
凼 100
函 100
凿 100
刀 100
刁 100
刃 100
分 100
切 100
刈 100
刊 100
刍 100
刎 100
刑 100
划 100
列 100
刘 100
则 100
刚 100
创 100
初 100
删 100
判 100
別 100
刨 100
利 100
刪 100
别 100
刮 100
到 100
制 100
刷 100
券 100
刹 100
刺 100
刻 100
刽 100
剁 100
剂 100
剃 100
則 100
剉 100
削 100
剋 100
剌 100
前 100
剎 100
剐 100
剑 100
剔 100
剖 100
剛 100
剜 100
剝 100
剣 100
剤 100
剥 100
剧 100
剩 100
剪 100
副 100
剰 100
剱 100
割 100
創 100
剽 100
剿 100
劃 100
劇 100
劈 100
劉 100
劍 100
劏 100
劑 100
劔 100
力 100
劝 100
办 100
功 100
加 100
务 100
劣 100
动 100
助 100
努 100
劫 100
劭 100
励 100
劲 100
劳 100
労 100
劵 100
効 100
劾 100
势 100
勁 100
勃 100
勅 100
勇 100
勉 100
勋 100
勐 100
勒 100
動 100
勖 100
勘 100
務 100
勛 100
勝 100
勞 100
募 100
勢 100
勤 100
勧 100
勪 100
勫 100
勬 100
勭 100
勮 100
勯 100
勲 100
勳 100
勵 100
勸 100
勹 100
勺 100
勻 100
勾 100
勿 100
匀 100
匁 100
匂 100
包 100
匆 100
匈 100
匍 100
匐 100
匕 100
化 100
北 100
匙 100
匝 100
匠 100
匡 100
匣 100
匪 100
匮 100
匯 100
匱 100
匹 100
区 100
医 100
匾 100
匿 100
區 100
十 100
千 100
卅 100
升 100
午 100
卉 100
半 100
卍 100
华 100
协 100
卐 100
卑 100
卒 100
卓 100
協 100
单 100
卖 100
南 100
単 100
博 100
卜 100
卝 100
卞 100
卟 100
占 100
卡 100
卢 100
卤 100
卦 100
卧 100
卫 100
卮 100
卯 100
印 100
危 100
即 100
却 100
卵 100
卷 100
卸 100
卻 100
卽 100
卿 100
厂 100
厄 100
厅 100
历 100
厉 100
压 100
厌 100
厍 100
厕 100
厘 100
厚 100
厝 100
原 100
厠 100
厢 100
厥 100
厦 100
厨 100
厩 100
厭 100
厮 100
厯 100
厲 100
厳 100
厶 100
去 100
县 100
叁 100
参 100
參 100
又 100
叉 100
及 100
友 100
双 100
反 100
収 100
叏 100
发 100
叒 100
叔 100
叕 100
取 100
受 100
变 100
叙 100
叛 100
叟 100
叠 100
叡 100
叢 100
口 100
古 100
句 100
另 100
叧 100
叨 100
叩 100
只 100
叫 100
召 100
叭 100
叮 100
可 100
台 100
叱 100
史 100
右 100
叵 100
叶 100
号 100
司 100
叹 100
叻 100
叼 100
叽 100
吁 100
吃 100
各 100
吆 100
合 100
吉 100
吊 100
吋 100
同 100
名 100
后 100
吏 100
吐 100
向 100
吒 100
吓 100
吕 100
吖 100
吗 100
君 100
吝 100
吞 100
吟 100
吠 100
吡 100
吥 100
否 100
吧 100
吨 100
吩 100
含 100
听 100
吭 100
吮 100
启 100
吱 100
吲 100
吳 100
吴 100
吵 100
吶 100
吸 100
吹 100
吻 100
吼 100
吽 100
吾 100
呀 100
呂 100
呃 100
呆 100
呈 100
呉 100
告 100
呋 100
呎 100
呐 100
呑 100
呓 100
呕 100
呗 100
员 100
呛 100
呜 100
呟 100
呢 100
呤 100
呦 100
周 100
呪 100
呭 100
呮 100
呱 100
呲 100
味 100
呵 100
呷 100
呸 100
呻 100
呼 100
命 100
咀 100
咁 100
咂 100
咄 100
咆 100
咋 100
和 100
咎 100
咏 100
咐 100
咒 100
咔 100
咕 100
咖 100
咗 100
咘 100
咙 100
咚 100
咛 100
咣 100
咤 100
咥 100
咦 100
咧 100
咨 100
咩 100
咪 100
咫 100
咬 100
咭 100
咯 100
咱 100
咲 100
咳 100
咸 100
咻 100
咽 100
咿 100
哀 100
品 100
哂 100
哄 100
哆 100
哇 100
哈 100
哉 100
哋 100
哌 100
响 100
哎 100
哏 100
哐 100
哑 100
哒 100
哔 100
哗 100
哚 100
哝 100
哟 100
員 100
哥 100
哦 100
哧 100
哨 100
哩 100
哪 100
哭 100
哮 100
哲 100
哺 100
哼 100
哽 100
唁 100
唄 100
唆 100
唇 100
唉 100
唏 100
唐 100
唑 100
唔 100
唖 100
唛 100
唠 100
唢 100
唤 100
唧 100
唬 100
售 100
唯 100
唰 100
唱 100
唳 100
唵 100
唷 100
唸 100
唾 100
啃 100
啄 100
商 100
啉 100
啊 100
問 100
啓 100
啕 100
啖 100
啜 100
啞 100
啟 100
啡 100
啤 100
啥 100
啦 100
啧 100
啪 100
啫 100
啬 100
啮 100
啰 100
啱 100
啲 100
啵 100
啶 100
啸 100
啻 100
啼 100
啾 100
喀 100
喂 100
喃 100
善 100
喆 100
喇 100
喉 100
喊 100
喋 100
喎 100
喏 100
喔 100
喘 100
喙 100
喚 100
喜 100
喝 100
喟 100
喧 100
喩 100
喪 100
喫 100
喬 100
單 100
喰 100
喱 100
喲 100
喳 100
喵 100
営 100
喷 100
喹 100
喺 100
喻 100
喽 100
嗅 100
嗆 100
嗇 100
嗎 100
嗑 100
嗒 100
嗓 100
嗔 100
嗕 100
嗖 100
嗗 100
嗘 100
嗙 100
嗚 100
嗜 100
嗝 100
嗟 100
嗡 100
嗣 100
嗤 100
嗦 100
嗨 100
嗪 100
嗬 100
嗯 100
嗰 100
嗲 100
嗳 100
嗶 100
嗷 100
嗽 100
嘀 100
嘅 100
嘆 100
嘈 100
嘉 100
嘌 100
嘍 100
嘎 100
嘔 100
嘖 100
嘗 100
嘘 100
嘚 100
嘛 100
嘞 100
嘟 100
嘢 100
嘣 100
嘤 100
嘧 100
嘩 100
嘭 100
嘯 100
嘰 100
嘱 100
嘲 100
嘴 100
嘶 100
嘹 100
嘻 100
嘿 100
噁 100
噂 100
噌 100
噎 100
噓 100
噔 100
噗 100
噙 100
噛 100
噜 100
噠 100
噢 100
噤 100
器 100
噩 100
噪 100
噫 100
噬 100
噱 100
噴 100
噶 100
噸 100
噹 100
噺 100
噻 100
噼 100
嚀 100
嚇 100
嚎 100
嚏 100
嚐 100
嚓 100
嚕 100
嚙 100
嚜 100
嚟 100
嚢 100
嚣 100
嚥 100
嚨 100
嚭 100
嚮 100
嚯 100
嚴 100
嚷 100
嚼 100
囀 100
囁 100
囂 100
囃 100
囉 100
囊 100
囍 100
囑 100
囔 100
囗 100
囚 100
四 100
囝 100
回 100
囟 100
因 100
囡 100
团 100
団 100
囤 100
囧 100
囪 100
囫 100
园 100
囮 100
囯 100
困 100
囱 100
囲 100
図 100
围 100
囵 100
囹 100
固 100
国 100
图 100
囿 100
圀 100
圃 100
圄 100
圆 100
圈 100
國 100
圍 100
圏 100
園 100
圓 100
圖 100
團 100
圜 100
土 100
圣 100
圦 100
圧 100
在 100
圩 100
圭 100
地 100
圳 100
场 100
圻 100
圾 100
址 100
坂 100
均 100
坊 100
坍 100
坎 100
坏 100
坐 100
坑 100
块 100
坚 100
坛 100
坝 100
坞 100
坟 100
坠 100
坡 100
坤 100
坦 100
坨 100
坩 100
坪 100
坭 100
坯 100
坳 100
坷 100
坻 100
垂 100
垃 100
垄 100
垅 100
型 100
垒 100
垓 100
垚 100
垛 100
垜 100
垠 100
垢 100
垣 100
垦 100
垩 100
垫 100
垭 100
垮 100
垵 100
埂 100
埃 100
埋 100
埌 100
城 100
埒 100
埔 100
埕 100
埗 100
埚 100
埜 100
域 100
埠 100
埤 100
埭 100
埴 100
埵 100
執 100
埸 100
培 100
基 100
埼 100
堀 100
堂 100
堃 100
堅 100
堆 100
堇 100
堉 100
堑 100
堕 100
堙 100
堝 100
堟 100
堡 100
堣 100
堤 100
堪 100
堯 100
堰 100
報 100
場 100
堵 100
堺 100
堿 100
塀 100
塁 100
塊 100
塌 100
塑 100
塔 100
塗 100
塘 100
塙 100
塚 100
塞 100
塢 100
塩 100
填 100
塬 100
塵 100
塹 100
塾 100
境 100
墅 100
墉 100
墊 100
墒 100
墓 100
増 100
墙 100
墜 100
增 100
墟 100
墠 100
墨 100
墩 100
墮 100
墳 100
墻 100
墾 100
壁 100
壅 100
壆 100
壇 100
壊 100
壌 100
壑 100
壓 100
壕 100
壘 100
壞 100
壟 100
壢 100
壤 100
壩 100
士 100
壬 100
壮 100
壯 100
声 100
壱 100
売 100
壳 100
壶 100
壷 100
壹 100
壺 100
壽 100
处 100
备 100
変 100
夊 100
夋 100
夌 100
复 100
夎 100
夏 100
夐 100
夔 100
夕 100
外 100
夙 100
多 100
夜 100
够 100
夠 100
夢 100
夥 100
大 100
天 100
太 100
夫 100
夭 100
央 100
夯 100
失 100
头 100
夷 100
夸 100
夹 100
夺 100
夾 100
奂 100
奄 100
奇 100
奈 100
奉 100
奋 100
奎 100
奏 100
奐 100
契 100
奔 100
奕 100
奖 100
套 100
奘 100
奚 100
奠 100
奢 100
奥 100
奧 100
奨 100
奪 100
奬 100
奭 100
奮 100
女 100
奴 100
奶 100
奸 100
她 100
好 100
如 100
妃 100
妄 100
妆 100
妇 100
妈 100
妊 100
妍 100
妒 100
妓 100
妖 100
妗 100
妙 100
妝 100
妞 100
妣 100
妤 100
妥 100
妨 100
妩 100
妪 100
妫 100
妬 100
妮 100
妯 100
妲 100
妳 100
妹 100
妻 100
妾 100
姆 100
姉 100
姊 100
始 100
姍 100
姐 100
姑 100
姒 100
姓 100
委 100
姗 100
姘 100
姚 100
姜 100
姝 100
姣 100
姥 100
姦 100
姨 100
姩 100
姪 100
姫 100
姬 100
姶 100
姹 100
姻 100
姿 100
威 100
娃 100
娄 100
娅 100
娆 100
娇 100
娉 100
娌 100
娑 100
娓 100
娘 100
娛 100
娜 100
娟 100
娠 100
娣 100
娥 100
娩 100
娯 100
娱 100
娲 100
娴 100
娶 100
娼 100
婀 100
婁 100
婂 100
婃 100
婄 100
婆 100
婇 100
婉 100
婊 100
婕 100
婚 100
婢 100
婦 100
婧 100
婪 100
婭 100
婳 100
婴 100
婵 100
婶 100
婷 100
婺 100
婿 100
媒 100
媚 100
媛 100
媲 100
媳 100
媽 100
嫀 100
嫁 100
嫂 100
嫉 100
嫌 100
嫔 100
嫖 100
嫘 100
嫚 100
嫡 100
嫣 100
嫦 100
嫩 100
嫻 100
嬅 100
嬉 100
嬌 100
嬗 100
嬛 100
嬢 100
嬤 100
嬩 100
嬪 100
嬫 100
嬬 100
嬰 100
嬲 100
嬴 100
嬷 100
嬸 100
嬿 100
孀 100
孃 100
子 100
孑 100
孒 100
孔 100
孕 100
孖 100
字 100
存 100
孙 100
孚 100
孛 100
孜 100
孝 100
孟 100
孢 100
季 100
孤 100
孥 100
学 100
孩 100
孪 100
孫 100
孬 100
孰 100
孱 100
孳 100
孵 100
學 100
孺 100
孽 100
宀 100
宁 100
它 100
宅 100
宇 100
守 100
安 100
宋 100
完 100
宍 100
宏 100
宓 100
宕 100
宗 100
官 100
宙 100
定 100
宛 100
宜 100
宝 100
实 100
実 100
宠 100
审 100
客 100
宣 100
室 100
宥 100
宦 100
宪 100
宫 100
宮 100
宰 100
害 100
宴 100
宵 100
家 100
宸 100
容 100
宽 100
宾 100
宿 100
寂 100
寄 100
寅 100
密 100
寇 100
富 100
寐 100
寒 100
寓 100
寔 100
寘 100
寛 100
寜 100
寝 100
寞 100
察 100
寡 100
寢 100
寤 100
寥 100
實 100
寧 100
寨 100
審 100
寫 100
寬 100
寮 100
寰 100
寳 100
寵 100
寶 100
寸 100
对 100
寺 100
寻 100
导 100
対 100
寿 100
封 100
専 100
射 100
将 100
將 100
專 100
尉 100
尊 100
尋 100
對 100
導 100
小 100
少 100
尒 100
尔 100
尕 100
尖 100
尘 100
尙 100
尚 100
尝 100
尤 100
尧 100
尪 100
尬 100
尰 100
就 100
尴 100
尷 100
尸 100
尹 100
尺 100
尻 100
尼 100
尽 100
尾 100
尿 100
局 100
屁 100
层 100
居 100
屆 100
屈 100
屉 100
届 100
屋 100
屍 100
屎 100
屏 100
屐 100
屑 100
屓 100
展 100
屜 100
属 100
屠 100
屡 100
屢 100
層 100
履 100
屬 100
屮 100
屯 100
山 100
屹 100
屼 100
屽 100
屾 100
屿 100
岀 100
岁 100
岂 100
岃 100
岄 100
岌 100
岐 100
岑 100
岔 100
岖 100
岗 100
岘 100
岙 100
岚 100
岛 100
岡 100
岢 100
岩 100
岫 100
岬 100
岭 100
岱 100
岳 100
岷 100
岸 100
岿 100
峁 100
峄 100
峇 100
峋 100
峒 100
峙 100
峠 100
峡 100
峤 100
峥 100
峦 100
峨 100
峪 100
峭 100
峯 100
峰 100
峴 100
島 100
峻 100
峽 100
崁 100
崂 100
崃 100
崆 100
崇 100
崎 100
崑 100
崔 100
崖 100
崗 100
崙 100
崛 100
崢 100
崧 100
崩 100
崭 100
崮 100
崴 100
崽 100
嵂 100
嵇 100
嵊 100
嵋 100
嵌 100
嵐 100
嵗 100
嵘 100
嵜 100
嵩 100
嵬 100
嵯 100
嶂 100
嶄 100
嶅 100
嶆 100
嶇 100
嶈 100
嶋 100
嶌 100
嶙 100
嶮 100
嶸 100
嶺 100
嶼 100
嶽 100
巅 100
巌 100
巍 100
巒 100
巔 100
巖 100
巛 100
川 100
州 100
巡 100
巢 100
巣 100
工 100
左 100
巧 100
巨 100
巩 100
巫 100
差 100
己 100
已 100
巳 100
巴 100
巷 100
巻 100
巽 100
巾 100
巿 100
币 100
市 100
布 100
帅 100
帆 100
师 100
希 100
帐 100
帑 100
帕 100
帖 100
帘 100
帚 100
帛 100
帜 100
帝 100
帥 100
带 100
帧 100
師 100
席 100
帮 100
帯 100
帰 100
帳 100
帶 100
帷 100
常 100
帼 100
帽 100
幀 100
幂 100
幄 100
幅 100
幇 100
幌 100
幔 100
幕 100
幟 100
幡 100
幢 100
幣 100
幫 100
干 100
平 100
年 100
幵 100
并 100
幷 100
幸 100
幹 100
幺 100
幻 100
幼 100
幽 100
幾 100
广 100
庁 100
広 100
庄 100
庆 100
庇 100
床 100
序 100
庐 100
库 100
应 100
底 100
庖 100
店 100
庙 100
庚 100
府 100
庝 100
庞 100
废 100
庠 100
庡 100
庢 100
度 100
座 100
庫 100
庭 100
庵 100
庶 100
康 100
庸 100
庹 100
庾 100
廁 100
廂 100
廃 100
廈 100
廉 100
廊 100
廓 100
廖 100
廚 100
廛 100
廝 100
廟 100
廠 100
廢 100
廣 100
廪 100
廬 100
廳 100
廴 100
延 100
廷 100
建 100
廻 100
廿 100
开 100
弁 100
异 100
弃 100
弄 100
弈 100
弉 100
弊 100
弋 100
弌 100
式 100
弐 100
弑 100
弓 100
弔 100
引 100
弗 100
弘 100
弛 100
弟 100
张 100
弥 100
弦 100
弧 100
弩 100
弭 100
弯 100
弱 100
張 100
強 100
弹 100
强 100
弼 100
弾 100
彀 100
彂 100
彅 100
彈 100
彊 100
彌 100
彎 100
归 100
当 100
录 100
彗 100
彘 100
彙 100
彝 100
彡 100
形 100
彤 100
彥 100
彦 100
彧 100
彩 100
彪 100
彫 100
彬 100
彭 100
彰 100
影 100
彲 100
彳 100
彷 100
役 100
彻 100
彼 100
彿 100
往 100
征 100
徃 100
径 100
待 100
徇 100
很 100
徉 100
徊 100
律 100
後 100
徐 100
徑 100
徒 100
従 100
徕 100
得 100
徘 100
徙 100
徜 100
從 100
徠 100
御 100
徨 100
復 100
循 100
微 100
徳 100
徴 100
徵 100
德 100
徹 100
徽 100
心 100
必 100
忆 100
忌 100
忍 100
忏 100
忐 100
忑 100
忒 100
忓 100
忔 100
忖 100
志 100
忘 100
忙 100
応 100
忠 100
忡 100
忤 100
忧 100
忪 100
快 100
忱 100
念 100
忻 100
忽 100
忿 100
怀 100
态 100
怂 100
怅 100
怆 100
怎 100
怏 100
怒 100
怔 100
怕 100
怖 100
怙 100
怜 100
思 100
怠 100
怡 100
急 100
怦 100
性 100
怨 100
怪 100
怯 100
怵 100
总 100
怼 100
恁 100
恂 100
恃 100
恆 100
恋 100
恍 100
恐 100
恒 100
恕 100
恙 100
恚 100
恢 100
恣 100
恤 100
恥 100
恨 100
恩 100
恪 100
恫 100
恬 100
恭 100
息 100
恰 100
恳 100
恵 100
恶 100
恸 100
恺 100
恻 100
恼 100
恽 100
恿 100
悄 100
悅 100
悉 100
悊 100
悌 100
悍 100
悔 100
悖 100
悚 100
悟 100
悠 100
患 100
悦 100
您 100
悩 100
悪 100
悬 100
悯 100
悱 100
悲 100
悴 100
悵 100
悶 100
悸 100
悻 100
悼 100
情 100
惆 100
惇 100
惊 100
惋 100
惑 100
惕 100
惘 100
惚 100
惜 100
惟 100
惠 100
惡 100
惣 100
惦 100
惧 100
惨 100
惩 100
惫 100
惬 100
惭 100
惮 100
惯 100
惰 100
惱 100
想 100
惴 100
惶 100
惹 100
惺 100
愁 100
愈 100
愉 100
愍 100
意 100
愕 100
愚 100
愛 100
愜 100
感 100
愣 100
愤 100
愧 100
愫 100
愬 100
愭 100
愴 100
愷 100
愼 100
愿 100
慄 100
慈 100
態 100
慌 100
慎 100
慑 100
慕 100
慘 100
慚 100
慜 100
慟 100
慢 100
慣 100
慧 100
慨 100
慫 100
慮 100
慰 100
慳 100
慵 100
慶 100
慷 100
慾 100
憂 100
憊 100
憋 100
憍 100
憎 100
憐 100
憑 100
憔 100
憚 100
憤 100
憧 100
憨 100
憩 100
憫 100
憬 100
憲 100
憶 100
憾 100
懂 100
懇 100
懈 100
應 100
懊 100
懋 100
懐 100
懒 100
懟 100
懦 100
懲 100
懵 100
懶 100
懷 100
懸 100
懺 100
懼 100
懾 100
懿 100
戀 100
戈 100
戊 100
戌 100
戍 100
戎 100
戏 100
成 100
我 100
戒 100
戕 100
或 100
战 100
戚 100
戛 100
戜 100
戝 100
戞 100
戟 100
戠 100
戣 100
戦 100
截 100
戬 100
戮 100
戯 100
戰 100
戲 100
戳 100
戴 100
戶 100
户 100
戸 100
戻 100
戾 100
房 100
所 100
扁 100
扇 100
扈 100
扉 100
手 100
才 100
扎 100
扑 100
扒 100
打 100
扔 100
払 100
托 100
扛 100
扣 100
扦 100
执 100
扩 100
扪 100
扫 100
扬 100
扭 100
扮 100
扯 100
扰 100
扱 100
扳 100
扶 100
批 100
扼 100
找 100
承 100
技 100
抄 100
抉 100
把 100
抑 100
抒 100
抓 100
投 100
抖 100
抗 100
折 100
抚 100
抛 100
抜 100
択 100
抠 100
抡 100
抢 100
护 100
报 100
抨 100
披 100
抬 100
抱 100
抵 100
抹 100
押 100
抽 100
抿 100
拂 100
拄 100
担 100
拆 100
拇 100
拈 100
拉 100
拋 100
拌 100
拍 100
拎 100
拐 100
拒 100
拓 100
拔 100
拖 100
拗 100
拘 100
拙 100
拚 100
招 100
拜 100
拝 100
拟 100
拠 100
拡 100
拢 100
拣 100
拥 100
拦 100
拧 100
拨 100
择 100
括 100
拭 100
拮 100
拯 100
拰 100
拱 100
拳 100
拴 100
拵 100
拶 100
拷 100
拼 100
拽 100
拾 100
拿 100
持 100
挂 100
指 100
挈 100
按 100
挎 100
挑 100
挖 100
挙 100
挚 100
挛 100
挝 100
挞 100
挟 100
挠 100
挡 100
挣 100
挤 100
挥 100
挨 100
挪 100
挫 100
振 100
挹 100
挺 100
挽 100
挾 100
挿 100
捂 100
捅 100
捆 100
捉 100
捋 100
捌 100
捍 100
捎 100
捏 100
捐 100
捕 100
捗 100
捜 100
捞 100
损 100
捡 100
换 100
捣 100
捧 100
捨 100
捩 100
捭 100
据 100
捱 100
捲 100
捶 100
捷 100
捺 100
捻 100
掀 100
掂 100
掃 100
掇 100
授 100
掉 100
掌 100
掏 100
掐 100
排 100
掖 100
掘 100
掙 100
掛 100
掟 100
掠 100
採 100
探 100
掣 100
接 100
控 100
推 100
掩 100
措 100
掬 100
掮 100
掰 100
掲 100
掳 100
掴 100
掷 100
掸 100
掺 100
掻 100
揀 100
揃 100
揄 100
揆 100
揉 100
揍 100
描 100
提 100
插 100
揖 100
揚 100
換 100
握 100
揣 100
揩 100
揪 100
揭 100
揮 100
援 100
揶 100
揸 100
揹 100
揺 100
揽 100
搀 100
搁 100
搂 100
搅 100
搆 100
損 100
搏 100
搐 100
搓 100
搔 100
搖 100
搗 100
搜 100
搞 100
搡 100
搦 100
搧 100
搪 100
搬 100
搭 100
搴 100
搵 100
搶 100
携 100
搽 100
搾 100
摁 100
摂 100
摄 100
摆 100
摇 100
摈 100
摊 100
摒 100
摔 100
摘 100
摞 100
摟 100
摧 100
摩 100
摯 100
摳 100
摸 100
摹 100
摺 100
摻 100
撂 100
撃 100
撅 100
撇 100
撈 100
撐 100
撑 100
撒 100
撓 100
撕 100
撚 100
撞 100
撤 100
撥 100
撩 100
撫 100
撬 100
播 100
撮 100
撰 100
撲 100
撳 100
撵 100
撷 100
撸 100
撹 100
撻 100
撼 100
撾 100
撿 100
擀 100
擁 100
擂 100
擄 100
擅 100
擇 100
擊 100
擋 100
操 100
擎 100
擒 100
擔 100
擘 100
據 100
擞 100
擠 100
擢 100
擦 100
擧 100
擬 100
擰 100
擱 100
擲 100
擴 100
擷 100
擺 100
擼 100
擾 100
攀 100
攏 100
攒 100
攔 100
攘 100
攙 100
攜 100
攝 100
攞 100
攢 100
攣 100
攤 100
攥 100
攪 100
攫 100
攬 100
支 100
收 100
攷 100
攸 100
改 100
攻 100
放 100
政 100
故 100
效 100
敌 100
敎 100
敏 100
救 100
敓 100
敕 100
敖 100
敗 100
敘 100
教 100
敛 100
敝 100
敞 100
敢 100
散 100
敤 100
敦 100
敬 100
数 100
敲 100
整 100
敵 100
敷 100
數 100
斂 100
斃 100
文 100
斉 100
斋 100
斌 100
斎 100
斐 100
斑 100
斓 100
斗 100
料 100
斛 100
斜 100
斟 100
斡 100
斤 100
斥 100
斧 100
斩 100
斫 100
斬 100
断 100
斯 100
新 100
斷 100
方 100
於 100
施 100
斿 100
旁 100
旂 100
旃 100
旅 100
旋 100
旌 100
旎 100
族 100
旖 100
旗 100
旛 100
无 100
既 100
旣 100
日 100
旦 100
旧 100
旨 100
早 100
旬 100
旭 100
旮 100
旯 100
旱 100
旳 100
时 100
旷 100
旸 100
旺 100
旻 100
旼 100
昀 100
昂 100
昆 100
昇 100
昉 100
昊 100
昌 100
明 100
昏 100
易 100
昔 100
昕 100
昙 100
星 100
映 100
春 100
昧 100
昨 100
昭 100
是 100
昱 100
昴 100
昵 100
昶 100
昼 100
显 100
晁 100
時 100
晃 100
晉 100
晋 100
晌 100
晏 100
晒 100
晓 100
晔 100
晕 100
晖 100
晗 100
晚 100
晝 100
晞 100
晟 100
晤 100
晦 100
晧 100
晨 100
晩 100
普 100
景 100
晰 100
晴 100
晶 100
晷 100
智 100
晾 100
暁 100
暂 100
暄 100
暇 100
暈 100
暉 100
暌 100
暐 100
暑 100
暖 100
暗 100
暝 100
暢 100
暦 100
暧 100
暨 100
暫 100
暮 100
暱 100
暴 100
暹 100
曄 100
曆 100
曇 100
曉 100
曌 100
曖 100
曙 100
曜 100
曝 100
曠 100
曡 100
曦 100
曩 100
曬 100
曰 100
曱 100
曲 100
曳 100
更 100
書 100
曹 100
曺 100
曼 100
曽 100
曾 100
替 100
最 100
會 100
月 100
有 100
朋 100
服 100
朐 100
朔 100
朕 100
朗 100
望 100
朝 100
期 100
朦 100
朧 100
木 100
未 100
末 100
本 100
札 100
朮 100
术 100
朱 100
朴 100
朵 100
机 100
朽 100
杀 100
杂 100
权 100
杆 100
杈 100
杉 100
李 100
杏 100
材 100
村 100
杓 100
杖 100
杜 100
杞 100
束 100
杠 100
条 100
杢 100
来 100
杨 100
杩 100
杭 100
杯 100
杰 100
東 100
杲 100
杳 100
杵 100
杷 100
杼 100
松 100
板 100
极 100
构 100
枇 100
枉 100
枋 100
析 100
枓 100
枕 100
林 100
枚 100
果 100
枝 100
枞 100
枠 100
枡 100
枢 100
枣 100
枥 100
枪 100
枫 100
枭 100
枯 100
枰 100
枱 100
枳 100
架 100
枷 100
枸 100
柄 100
柊 100
柏 100
某 100
柑 100
染 100
柔 100
柘 100
柚 100
柜 100
柞 100
柟 100
柠 100
柢 100
查 100
柩 100
柬 100
柯 100
柱 100
柳 100
柴 100
柵 100
査 100
柾 100
柿 100
栀 100
栁 100
栂 100
栃 100
栄 100
栅 100
标 100
栈 100
栉 100
栋 100
栎 100
栏 100
树 100
栓 100
栖 100
栗 100
栞 100
校 100
栢 100
栧 100
栩 100
株 100
栫 100
样 100
核 100
根 100
格 100
栽 100
栾 100
桀 100
桁 100
桂 100
桃 100
桅 100
框 100
案 100
桉 100
桌 100
桎 100
桐 100
桑 100
桓 100
桔 100
桜 100
桝 100
桟 100
桠 100
桡 100
桢 100
档 100
桥 100
桦 100
桧 100
桨 100
桩 100
桶 100
桿 100
梁 100
梅 100
梆 100
梏 100
梓 100
梗 100
條 100
梟 100
梠 100
梢 100
梦 100
梧 100
梨 100
梭 100
梯 100
械 100
梱 100
梳 100
梵 100
梶 100
检 100
棂 100
棄 100
棉 100
棋 100
棍 100
棒 100
棕 100
棗 100
棘 100
棚 100
棟 100
棠 100
棣 100
棧 100
森 100
棰 100
棱 100
棲 100
棵 100
棹 100
棺 100
椀 100
椁 100
椂 100
椅 100
椋 100
植 100
椎 100
椒 100
椛 100
検 100
椤 100
椭 100
椰 100
椴 100
椹 100
椽 100
椿 100
楀 100
楂 100
楊 100
楓 100
楔 100
楕 100
楚 100
楝 100
楞 100
楠 100
楡 100
楢 100
楣 100
楦 100
楨 100
楫 100
業 100
楮 100
楯 100
楳 100
極 100
楷 100
楸 100
楹 100
楼 100
楽 100
概 100
榄 100
榆 100
榈 100
榉 100
榊 100
榎 100
榔 100
榕 100
榖 100
榛 100
榜 100
榧 100
榨 100
榫 100
榭 100
榮 100
榱 100
榴 100
榷 100
榻 100
槁 100
槃 100
槇 100
構 100
槌 100
槍 100
槎 100
槐 100
槑 100
槓 100
様 100
槙 100
槛 100
槟 100
槤 100
槭 100
槲 100
槳 100
槸 100
槻 100
槽 100
槿 100
樁 100
樂 100
樊 100
樋 100
樑 100
樓 100
樗 100
樘 100
標 100
樞 100
樟 100
模 100
樣 100
樨 100
権 100
横 100
樫 100
樯 100
樱 100
樵 100
樸 100
樹 100
樺 100
樻 100
樽 100
樾 100
橄 100
橇 100
橈 100
橋 100
橐 100
橘 100
橙 100
機 100
橡 100
橢 100
橥 100
橫 100
橱 100
橹 100
橼 100
橿 100
檀 100
檄 100
檎 100
檐 100
檔 100
檗 100
檚 100
檜 100
檢 100
檩 100
檬 100
檯 100
檳 100
檸 100
檻 100
櫂 100
櫃 100
櫌 100
櫓 100
櫚 100
櫛 100
櫥 100
櫻 100
欄 100
欅 100
權 100
欎 100
欏 100
欐 100
欒 100
欖 100
欝 100
欠 100
次 100
欢 100
欣 100
欤 100
欧 100
欲 100
欸 100
欺 100
欽 100
款 100
歆 100
歇 100
歉 100
歌 100
歎 100
歐 100
歓 100
歙 100
歟 100
歡 100
止 100
正 100
此 100
步 100
武 100
歧 100
歩 100
歪 100
歯 100
歲 100
歳 100
歴 100
歷 100
歸 100
歹 100
死 100
歼 100
殁 100
殃 100
殄 100
殆 100
殇 100
殉 100
殊 100
残 100
殑 100
殒 100
殓 100
殖 100
殘 100
殡 100
殤 100
殭 100
殯 100
殲 100
殴 100
段 100
殷 100
殺 100
殻 100
殼 100
殿 100
毀 100
毁 100
毂 100
毅 100
毆 100
毋 100
母 100
毎 100
每 100
毒 100
毓 100
比 100
毕 100
毖 100
毗 100
毘 100
毙 100
毛 100
毡 100
毫 100
毬 100
毯 100
毽 100
氈 100
氏 100
氐 100
民 100
氓 100
气 100
氖 100
気 100
氙 100
氛 100
氟 100
氡 100
氢 100
氣 100
氤 100
氦 100
氧 100
氨 100
氩 100
氪 100
氫 100
氬 100
氭 100
氮 100
氯 100
氰 100
氱 100
氲 100
氳 100
水 100
氷 100
永 100
氹 100
氾 100
汀 100
汁 100
求 100
汆 100
汇 100
汉 100
汊 100
汎 100
汏 100
汐 100
汕 100
汗 100
汙 100
汚 100
汛 100
汜 100
汝 100
汞 100
江 100
池 100
污 100
汤 100
汨 100
汩 100
汪 100
汰 100
汲 100
汴 100
汶 100
汹 100
決 100
汽 100
汾 100
沁 100
沂 100
沃 100
沅 100
沆 100
沈 100
沉 100
沌 100
沏 100
沐 100
沒 100
沓 100
沔 100
沖 100
沙 100
沛 100
沟 100
没 100
沢 100
沣 100
沤 100
沥 100
沦 100
沧 100
沪 100
沫 100
沭 100
沮 100
沱 100
河 100
沸 100
油 100
治 100
沼 100
沽 100
沾 100
沿 100
況 100
泄 100
泅 100
泉 100
泊 100
泌 100
泓 100
泔 100
法 100
泗 100
泛 100
泞 100
泠 100
泡 100
波 100
泣 100
泥 100
注 100
泪 100
泫 100
泮 100
泯 100
泰 100
泱 100
泳 100
泵 100
泷 100
泸 100
泻 100
泼 100
泽 100
泾 100
洁 100
洄 100
洋 100
洌 100
洒 100
洗 100
洙 100
洛 100
洞 100
津 100
洧 100
洩 100
洪 100
洮 100
洱 100
洲 100
洵 100
洶 100
洸 100
洹 100
活 100
洼 100
洽 100
派 100
流 100
浃 100
浄 100
浅 100
浆 100
浇 100
浉 100
浊 100
测 100
济 100
浏 100
浐 100
浑 100
浒 100
浓 100
浔 100
浗 100
浙 100
浚 100
浜 100
浠 100
浣 100
浦 100
浩 100
浪 100
浬 100
浮 100
浴 100
海 100
浸 100
浼 100
涂 100
涅 100
涇 100
消 100
涉 100
涌 100
涎 100
涓 100
涔 100
涕 100
涘 100
涙 100
涛 100
涜 100
涝 100
涞 100
涟 100
涠 100
涡 100
涣 100
涤 100
润 100
涧 100
涨 100
涩 100
涪 100
涮 100
涯 100
液 100
涵 100
涸 100
涼 100
涿 100
淀 100
淄 100
淅 100
淆 100
淇 100
淋 100
淌 100
淑 100
淒 100
淖 100
淘 100
淙 100
淚 100
淝 100
淞 100
淡 100
淤 100
淦 100
淨 100
淩 100
淪 100
淫 100
淬 100
淮 100
深 100
淳 100
淵 100
混 100
淸 100
淹 100
淺 100
添 100
淼 100
清 100
渇 100
済 100
渉 100
渊 100
渋 100
渌 100
渍 100
渎 100
渐 100
渑 100
渓 100
渔 100
渕 100
渗 100
渚 100
減 100
渝 100
渠 100
渡 100
渣 100
渤 100
渥 100
渦 100
温 100
測 100
渭 100
港 100
渲 100
渴 100
渶 100
游 100
渺 100
渾 100
湁 100
湃 100
湄 100
湊 100
湍 100
湎 100
湖 100
湘 100
湛 100
湜 100
湟 100
湡 100
湧 100
湪 100
湫 100
湮 100
湯 100
湳 100
湴 100
湾 100
湿 100
満 100
溃 100
溅 100
溆 100
溉 100
溏 100
源 100
準 100
溜 100
溝 100
溟 100
溢 100
溥 100
溧 100
溪 100
溫 100
溯 100
溱 100
溴 100
溶 100
溺 100
溼 100
滀 100
滁 100
滂 100
滃 100
滄 100
滅 100
滆 100
滇 100
滉 100
滋 100
滌 100
滑 100
滓 100
滔 100
滕 100
滘 100
滙 100
滚 100
滝 100
滞 100
滟 100
满 100
滢 100
滤 100
滥 100
滦 100
滨 100
滩 100
滬 100
滯 100
滲 100
滴 100
滷 100
滸 100
滾 100
滿 100
漁 100
漂 100
漆 100
漉 100
漏 100
漑 100
漓 100
演 100
漕 100
漠 100
漢 100
漣 100
漩 100
漪 100
漫 100
漬 100
漯 100
漱 100
漲 100
漳 100
漸 100
漾 100
漿 100
潁 100
潅 100
潇 100
潋 100
潍 100
潑 100
潔 100
潘 100
潛 100
潜 100
潞 100
潟 100
潢 100
潤 100
潦 100
潭 100
潮 100
潰 100
潴 100
潵 100
潸 100
潺 100
潼 100
澀 100
澁 100
澄 100
澆 100
澈 100
澍 100
澎 100
澗 100
澜 100
澡 100
澤 100
澧 100
澪 100
澱 100
澳 100
澶 100
澹 100
激 100
濁 100
濂 100
濃 100
濆 100
濇 100
濉 100
濊 100
濑 100
濒 100
濕 100
濛 100
濞 100
濟 100
濠 100
濡 100
濤 100
濫 100
濬 100
濮 100
濯 100
濰 100
濱 100
濵 100
濺 100
濾 100
瀆 100
瀉 100
瀋 100
瀏 100
瀑 100
瀕 100
瀘 100
瀚 100
瀛 100
瀝 100
瀞 100
瀟 100
瀧 100
瀨 100
瀬 100
瀰 100
瀵 100
瀹 100
瀾 100
灌 100
灏 100
灑 100
灘 100
灞 100
灣 100
火 100
灬 100
灭 100
灯 100
灰 100
灵 100
灶 100
灸 100
灼 100
災 100
灾 100
灿 100
炀 100
炁 100
炅 100
炉 100
炊 100
炎 100
炒 100
炔 100
炕 100
炖 100
炙 100
炜 100
炝 100
炤 100
炫 100
炬 100
炭 100
炮 100
炯 100
炲 100
炳 100
炷 100
炸 100
点 100
為 100
炼 100
炽 100
烁 100
烂 100
烃 100
烈 100
烊 100
烏 100
烘 100
烙 100
烛 100
烟 100
烤 100
烦 100
烧 100
烨 100
烩 100
烫 100
烬 100
热 100
烯 100
烴 100
烷 100
烹 100
烽 100
焉 100
焊 100
焓 100
焔 100
焕 100
焖 100
焗 100
焘 100
焙 100
焚 100
無 100
焦 100
焯 100
焰 100
焱 100
然 100
焼 100
煅 100
煉 100
煊 100
煌 100
煎 100
煒 100
煕 100
煙 100
煜 100
煞 100
煡 100
煤 100
煥 100
煦 100
照 100
煨 100
煩 100
煮 100
煲 100
煸 100
煽 100
熄 100
熊 100
熏 100
熒 100
熔 100
熙 100
熟 100
熠 100
熨 100
熬 100
熱 100
熵 100
熷 100
熸 100
熹 100
熺 100
熻 100
熾 100
燁 100
燃 100
燈 100
燉 100
燊 100
燎 100
燐 100
燒 100
燔 100
燕 100
燗 100
燙 100
燚 100
燜 100
營 100
燥 100
燦 100
燧 100
燭 100
燮 100
燴 100
燵 100
燻 100
燼 100
燿 100
爆 100
爍 100
爐 100
爛 100
爨 100
爪 100
爬 100
爭 100
爰 100
爱 100
爲 100
爵 100
父 100
爷 100
爸 100
爹 100
爺 100
爻 100
爽 100
爾 100
牀 100
牆 100
片 100
版 100
牌 100
牍 100
牒 100
牙 100
牛 100
牝 100
牟 100
牠 100
牡 100
牢 100
牦 100
牧 100
物 100
牯 100
牲 100
牴 100
牵 100
特 100
牺 100
牽 100
犀 100
犁 100
犄 100
犇 100
犊 100
犍 100
犒 100
犟 100
犠 100
犢 100
犧 100
犬 100
犯 100
犲 100
状 100
犷 100
犸 100
犹 100
狀 100
狂 100
狄 100
狆 100
狈 100
狍 100
狎 100
狐 100
狒 100
狗 100
狙 100
狛 100
狞 100
狠 100
狡 100
狢 100
狩 100
独 100
狭 100
狮 100
狰 100
狱 100
狸 100
狹 100
狻 100
狼 100
狽 100
猊 100
猎 100
猓 100
猕 100
猖 100
猗 100
猛 100
猜 100
猝 100
猟 100
猥 100
猩 100
猪 100
猫 100
猬 100
献 100
猴 100
猶 100
猷 100
猾 100
猿 100
獄 100
獅 100
獎 100
獏 100
獐 100
獒 100
獗 100
獠 100
獣 100
獨 100
獭 100
獰 100
獲 100
獵 100
獸 100
獺 100
獻 100
獼 100
獾 100
玄 100
率 100
玉 100
王 100
玎 100
玑 100
玖 100
玛 100
玟 100
玠 100
玥 100
玩 100
玫 100
玭 100
玮 100
环 100
现 100
玲 100
玳 100
玷 100
玺 100
玻 100
珀 100
珂 100
珅 100
珈 100
珉 100
珊 100
珍 100
珏 100
珐 100
珑 100
珙 100
珞 100
珠 100
珣 100
珥 100
珩 100
珪 100
班 100
珮 100
珲 100
珺 100
現 100
球 100
琅 100
理 100
琇 100
琉 100
琊 100
琍 100
琏 100
琐 100
琚 100
琛 100
琢 100
琥 100
琦 100
琨 100
琪 100
琬 100
琮 100
琰 100
琲 100
琳 100
琴 100
琵 100
琶 100
琺 100
琼 100
瑀 100
瑁 100
瑄 100
瑋 100
瑕 100
瑗 100
瑙 100
瑚 100
瑛 100
瑜 100
瑞 100
瑟 100
瑠 100
瑣 100
瑤 100
瑩 100
瑪 100
瑯 100
瑰 100
瑶 100
瑷 100
瑾 100
璀 100
璁 100
璃 100
璇 100
璉 100
璋 100
璎 100
璐 100
璘 100
璜 100
璞 100
璟 100
璠 100
璣 100
璧 100
璨 100
環 100
璺 100
璽 100
瓊 100
瓏 100
瓒 100
瓔 100
瓙 100
瓜 100
瓠 100
瓢 100
瓣 100
瓤 100
瓦 100
瓮 100
瓯 100
瓴 100
瓶 100
瓷 100
瓿 100
甄 100
甑 100
甕 100
甘 100
甙 100
甚 100
甜 100
生 100
產 100
産 100
甥 100
甦 100
用 100
甩 100
甫 100
甬 100
甭 100
甯 100
田 100
由 100
甲 100
申 100
甴 100
电 100
男 100
甸 100
町 100
画 100
甾 100
畀 100
畅 100
畈 100
界 100
畏 100
畑 100
畔 100
留 100
畜 100
畝 100
畠 100
畢 100
略 100
畦 100
畧 100
番 100
畫 100
異 100
畲 100
畳 100
畴 100
畵 100
當 100
畷 100
畸 100
畹 100
畿 100
疃 100
疆 100
疇 100
疊 100
疋 100
疎 100
疏 100
疑 100
疖 100
疗 100
疙 100
疚 100
疝 100
疟 100
疡 100
疣 100
疤 100
疥 100
疫 100
疮 100
疯 100
疱 100
疲 100
疳 100
疴 100
疵 100
疸 100
疹 100
疼 100
疽 100
疾 100
痂 100
病 100
症 100
痈 100
痉 100
痊 100
痍 100
痒 100
痔 100
痕 100
痘 100
痙 100
痛 100
痞 100
痠 100
痢 100
痣 100
痤 100
痧 100
痨 100
痩 100
痪 100
痫 100
痰 100
痱 100
痴 100
痹 100
痺 100
痼 100
痿 100
瘀 100
瘁 100
瘋 100
瘍 100
瘓 100
瘘 100
瘙 100
瘟 100
瘠 100
瘡 100
瘢 100
瘤 100
瘦 100
瘩 100
瘪 100
瘫 100
瘴 100
瘸 100
瘻 100
瘾 100
癀 100
療 100
癇 100
癌 100
癒 100
癖 100
癘 100
癜 100
癞 100
癡 100
癢 100
癣 100
癥 100
癪 100
癫 100
癬 100
癮 100
癱 100
癲 100
癶 100
癸 100
発 100
登 100
發 100
白 100
百 100
皂 100
的 100
皆 100
皇 100
皈 100
皋 100
皎 100
皐 100
皑 100
皓 100
皖 100
皙 100
皮 100
皱 100
皴 100
皺 100
皿 100
盂 100
盃 100
盅 100
盆 100
盈 100
益 100
盎 100
盏 100
盐 100
监 100
盒 100
盔 100
盖 100
盗 100
盘 100
盛 100
盜 100
盞 100
盟 100
盡 100
監 100
盤 100
盥 100
盧 100
盪 100
目 100
盯 100
盱 100
盲 100
直 100
相 100
盹 100
盼 100
盾 100
省 100
眈 100
眉 100
看 100
県 100
眙 100
眞 100
真 100
眠 100
眦 100
眨 100
眩 100
眯 100
眶 100
眷 100
眸 100
眺 100
眼 100
眾 100
着 100
睁 100
睇 100
睐 100
睑 100
睚 100
睛 100
睜 100
睞 100
睡 100
睢 100
督 100
睥 100
睦 100
睨 100
睪 100
睫 100
睬 100
睹 100
睽 100
睾 100
睿 100
瞄 100
瞅 100
瞇 100
瞋 100
瞌 100
瞎 100
瞑 100
瞒 100
瞓 100
瞞 100
瞟 100
瞠 100
瞥 100
瞧 100
瞩 100
瞪 100
瞬 100
瞭 100
瞰 100
瞳 100
瞻 100
瞼 100
瞿 100
矇 100
矍 100
矗 100
矚 100
矛 100
矜 100
矢 100
矣 100
知 100
矩 100
矫 100
短 100
矮 100
矯 100
石 100
矶 100
矸 100
矽 100
矾 100
矿 100
砀 100
码 100
砂 100
砌 100
砍 100
砒 100
研 100
砕 100
砖 100
砚 100
砜 100
砝 100
砟 100
砣 100
砥 100
砦 100
砧 100
砭 100
砰 100
砲 100
破 100
砷 100
砸 100
砺 100
砻 100
砼 100
砾 100
础 100
硅 100
硌 100
硎 100
硏 100
硐 100
硒 100
硕 100
硚 100
硝 100
硫 100
硬 100
确 100
硯 100
硼 100
碁 100
碇 100
碉 100
碌 100
碍 100
碎 100
碑 100
碓 100
碗 100
碘 100
碚 100
碛 100
碜 100
碟 100
碣 100
碧 100
碩 100
碰 100
碱 100
碲 100
碳 100
碴 100
確 100
碼 100
碾 100
磁 100
磅 100
磊 100
磋 100
磐 100
磔 100
磕 100
磙 100
磚 100
磡 100
磨 100
磬 100
磯 100
磴 100
磷 100
磺 100
礁 100
礎 100
礙 100
礡 100
礦 100
礪 100
礫 100
礴 100
示 100
礼 100
社 100
祀 100
祁 100
祂 100
祇 100
祈 100
祉 100
祎 100
祐 100
祓 100
祕 100
祖 100
祗 100
祚 100
祛 100
祜 100
祝 100
神 100
祟 100
祠 100
祢 100
祥 100
票 100
祫 100
祭 100
祯 100
祷 100
祸 100
祺 100
祿 100
禀 100
禁 100
禄 100
禅 100
禊 100
禍 100
禎 100
福 100
禛 100
禦 100
禧 100
禪 100
禮 100
禰 100
禱 100
禹 100
禺 100
离 100
禽 100
禾 100
禿 100
秀 100
私 100
秃 100
秆 100
秉 100
秋 100
种 100
科 100
秒 100
秘 100
秝 100
租 100
秣 100
秤 100
秦 100
秧 100
秩 100
秭 100
积 100
称 100
秸 100
移 100
秽 100
稀 100
稂 100
稅 100
稈 100
程 100
稍 100
税 100
稔 100
稗 100
稚 100
稜 100
稞 100
稟 100
稠 100
稣 100
種 100
稱 100
稲 100
稳 100
稷 100
稹 100
稻 100
稼 100
稽 100
稿 100
穀 100
穂 100
穆 100
穌 100
積 100
穎 100
穏 100
穐 100
穑 100
穗 100
穝 100
穡 100
穢 100
穣 100
穦 100
穩 100
穫 100
穰 100
穴 100
究 100
穷 100
穹 100
空 100
穿 100
突 100
窃 100
窄 100
窈 100
窍 100
窑 100
窒 100
窓 100
窕 100
窖 100
窗 100
窘 100
窜 100
窝 100
窟 100
窠 100
窥 100
窦 100
窨 100
窩 100
窪 100
窮 100
窯 100
窺 100
窿 100
竄 100
竅 100
竇 100
竈 100
竊 100
立 100
竒 100
竖 100
站 100
竜 100
竞 100
竟 100
章 100
竣 100
童 100
竦 100
竪 100
竭 100
端 100
竴 100
競 100
竹 100
竺 100
竽 100
竿 100
笂 100
笃 100
笄 100
笅 100
笆 100
笈 100
笉 100
笊 100
笋 100
笏 100
笑 100
笔 100
笙 100
笛 100
笞 100
笟 100
笠 100
笥 100
符 100
笨 100
笫 100
第 100
笳 100
笹 100
笺 100
笼 100
筆 100
筈 100
等 100
筋 100
筍 100
筏 100
筐 100
筑 100
筒 100
答 100
策 100
筚 100
筛 100
筜 100
筝 100
筠 100
筦 100
筧 100
筮 100
筱 100
筵 100
筷 100
筹 100
筼 100
签 100
简 100
箅 100
箇 100
箋 100
箍 100
箏 100
箐 100
箒 100
箓 100
箔 100
箕 100
算 100
管 100
箩 100
箪 100
箫 100
箬 100
箭 100
箱 100
箴 100
箸 100
節 100
篁 100
範 100
篆 100
篇 100
築 100
篑 100
篓 100
篙 100
篝 100
篠 100
篡 100
篤 100
篦 100
篩 100
篪 100
篭 100
篮 100
篱 100
篷 100
篾 100
簀 100
簇 100
簋 100
簌 100
簟 100
簡 100
簧 100
簪 100
簫 100
簬 100
簷 100
簸 100
簽 100
簾 100
簿 100
籁 100
籃 100
籌 100
籍 100
籐 100
籔 100
籟 100
籠 100
籤 100
籬 100
籲 100
米 100
类 100
籼 100
籽 100
籾 100
粉 100
粋 100
粑 100
粒 100
粕 100
粗 100
粘 100
粛 100
粟 100
粡 100
粤 100
粥 100
粧 100
粪 100
粮 100
粱 100
粲 100
粳 100
粵 100
粹 100
粼 100
粽 100
精 100
粿 100
糀 100
糅 100
糊 100
糍 100
糕 100
糖 100
糗 100
糙 100
糜 100
糞 100
糟 100
糠 100
糧 100
糬 100
糯 100
糰 100
糸 100
糺 100
系 100
糾 100
紀 100
紂 100
約 100
紅 100
紆 100
紊 100
紋 100
納 100
紐 100
紒 100
紓 100
純 100
紗 100
紘 100
紙 100
級 100
紛 100
紝 100
素 100
紡 100
索 100
紧 100
紫 100
紬 100
紮 100
累 100
細 100
紳 100
紵 100
紹 100
紺 100
終 100
絃 100
組 100
絆 100
経 100
結 100
絕 100
絞 100
絡 100
絢 100
絣 100
給 100
絨 100
絮 100
統 100
絲 100
絳 100
絵 100
絶 100
絹 100
絽 100
綁 100
綉 100
綋 100
綏 100
經 100
綔 100
継 100
続 100
綜 100
綠 100
綢 100
綦 100
綫 100
綬 100
維 100
綱 100
網 100
綴 100
綵 100
綸 100
綺 100
綻 100
綽 100
綾 100
綿 100
緊 100
緋 100
総 100
緑 100
緒 100
緘 100
線 100
緝 100
緞 100
締 100
緣 100
編 100
緩 100
緬 100
緯 100
練 100
緹 100
緻 100
縁 100
縄 100
縈 100
縋 100
縛 100
縞 100
縣 100
縦 100
縫 100
縮 100
縱 100
縷 100
縺 100
總 100
績 100
繁 100
繃 100
繆 100
繇 100
繊 100
繋 100
繍 100
織 100
繕 100
繖 100
繘 100
繚 100
繝 100
繞 100
繡 100
繧 100
繩 100
繪 100
繫 100
繭 100
繰 100
繳 100
繹 100
繼 100
繽 100
纂 100
續 100
纏 100
纓 100
纔 100
纖 100
纜 100
纠 100
红 100
纣 100
纤 100
约 100
级 100
纨 100
纪 100
纫 100
纬 100
纭 100
纯 100
纰 100
纱 100
纲 100
纳 100
纵 100
纶 100
纷 100
纸 100
纹 100
纺 100
纽 100
纾 100
线 100
绀 100
练 100
组 100
绅 100
细 100
织 100
终 100
绉 100
绊 100
绌 100
绍 100
绎 100
经 100
绑 100
绒 100
结 100
绔 100
绕 100
绗 100
绘 100
给 100
绚 100
绛 100
络 100
绝 100
绞 100
统 100
绠 100
绡 100
绢 100
绣 100
绥 100
绦 100
继 100
绩 100
绪 100
绫 100
续 100
绮 100
绯 100
绰 100
绳 100
维 100
绵 100
绶 100
绷 100
绸 100
绻 100
综 100
绽 100
绾 100
绿 100
缀 100
缁 100
缂 100
缃 100
缄 100
缅 100
缆 100
缇 100
缈 100
缉 100
缎 100
缓 100
缔 100
缕 100
编 100
缘 100
缙 100
缚 100
缜 100
缝 100
缠 100
缢 100
缤 100
缥 100
缦 100
缨 100
缩 100
缪 100
缬 100
缭 100
缮 100
缰 100
缱 100
缴 100
缶 100
缸 100
缺 100
缽 100
罂 100
罄 100
罅 100
罍 100
罐 100
网 100
罒 100
罔 100
罕 100
罗 100
罘 100
罚 100
罠 100
罡 100
罢 100
罩 100
罪 100
罫 100
置 100
罰 100
署 100
罵 100
罷 100
罹 100
羁 100
羅 100
羆 100
羈 100
羊 100
羌 100
美 100
羔 100
羚 100
羞 100
羟 100
羡 100
羣 100
群 100
羧 100
羨 100
義 100
羯 100
羰 100
羲 100
羸 100
羹 100
羽 100
羿 100
翀 100
翁 100
翅 100
翊 100
翌 100
翎 100
習 100
翔 100
翘 100
翟 100
翠 100
翡 100
翦 100
翩 100
翰 100
翱 100
翳 100
翹 100
翻 100
翼 100
耀 100
老 100
考 100
耄 100
者 100
耆 100
耋 100
而 100
耍 100
耐 100
耒 100
耕 100
耗 100
耘 100
耙 100
耦 100
耨 100
耳 100
耶 100
耷 100
耸 100
耻 100
耽 100
耿 100
聂 100
聆 100
聊 100
聋 100
职 100
聒 100
联 100
聖 100
聘 100
聚 100
聞 100
聡 100
聩 100
聪 100
聯 100
聰 100
聲 100
聳 100
聴 100
聶 100
職 100
聽 100
聾 100
聿 100
肃 100
肄 100
肅 100
肆 100
肇 100
肉 100
肋 100
肌 100
肓 100
肖 100
肘 100
肚 100
肛 100
肝 100
肟 100
肠 100
股 100
肢 100
肤 100
肥 100
肩 100
肪 100
肮 100
肯 100
肱 100
育 100
肴 100
肺 100
肼 100
肽 100
肾 100
肿 100
胀 100
胁 100
胃 100
胄 100
胆 100
背 100
胍 100
胎 100
胖 100
胗 100
胚 100
胛 100
胜 100
胝 100
胞 100
胡 100
胤 100
胥 100
胧 100
胫 100
胭 100
胯 100
胰 100
胱 100
胳 100
胴 100
胶 100
胸 100
胺 100
能 100
脂 100
脅 100
脆 100
脇 100
脈 100
脉 100
脊 100
脍 100
脏 100
脐 100
脑 100
脓 100
脖 100
脘 100
脚 100
脛 100
脩 100
脫 100
脯 100
脱 100
脲 100
脳 100
脸 100
脹 100
脾 100
脿 100
腆 100
腈 100
腊 100
腋 100
腌 100
腎 100
腐 100
腑 100
腓 100
腔 100
腕 100
腥 100
腦 100
腩 100
腫 100
腭 100
腮 100
腰 100
腱 100
腳 100
腴 100
腸 100
腹 100
腺 100
腻 100
腼 100
腾 100
腿 100
膀 100
膈 100
膊 100
膏 100
膑 100
膘 100
膚 100
膛 100
膜 100
膝 100
膠 100
膣 100
膦 100
膨 100
膩 100
膳 100
膵 100
膺 100
膻 100
膽 100
膾 100
膿 100
臀 100
臂 100
臃 100
臆 100
臉 100
臊 100
臍 100
臓 100
臘 100
臟 100
臣 100
臥 100
臧 100
臨 100
自 100
臬 100
臭 100
至 100
致 100
臺 100
臻 100
臼 100
臾 100
舀 100
舂 100
舅 100
舆 100
與 100
興 100
舉 100
舊 100
舌 100
舍 100
舎 100
舐 100
舒 100
舔 100
舖 100
舗 100
舘 100
舛 100
舜 100
舞 100
舟 100
舣 100
舩 100
航 100
舫 100
般 100
舰 100
舱 100
舵 100
舶 100
舷 100
舸 100
船 100
舺 100
艇 100
艋 100
艘 100
艙 100
艤 100
艦 100
艮 100
良 100
艰 100
艱 100
色 100
艳 100
艶 100
艷 100
艸 100
艹 100
艺 100
艾 100
艿 100
节 100
芃 100
芈 100
芊 100
芋 100
芍 100
芎 100
芒 100
芗 100
芘 100
芙 100
芜 100
芝 100
芡 100
芣 100
芥 100
芦 100
芨 100
芩 100
芪 100
芫 100
芬 100
芭 100
芮 100
芯 100
芰 100
花 100
芳 100
芷 100
芸 100
芹 100
芻 100
芽 100
芾 100
苁 100
苄 100
苅 100
苇 100
苋 100
苍 100
苎 100
苏 100
苑 100
苒 100
苓 100
苔 100
苕 100
苗 100
苛 100
苜 100
苞 100
苟 100
苡 100
苣 100
若 100
苦 100
苫 100
苯 100
英 100
苴 100
苷 100
苹 100
苺 100
苻 100
苾 100
茁 100
茂 100
范 100
茄 100
茅 100
茉 100
茌 100
茎 100
茏 100
茗 100
茜 100
茧 100
茨 100
茫 100
茬 100
茭 100
茯 100
茱 100
茲 100
茴 100
茵 100
茶 100
茸 100
茹 100
茼 100
荀 100
荃 100
荆 100
草 100
荊 100
荏 100
荐 100
荒 100
荔 100
荖 100
荘 100
荚 100
荞 100
荟 100
荠 100
荡 100
荣 100
荤 100
荥 100
荧 100
荨 100
荩 100
荪 100
荫 100
药 100
荳 100
荷 100
荸 100
荻 100
荼 100
荽 100
莅 100
莆 100
莉 100
莊 100
莎 100
莒 100
莓 100
莖 100
莘 100
莜 100
莞 100
莠 100
莢 100
莨 100
莪 100
莫 100
莱 100
莲 100
莳 100
莴 100
获 100
莹 100
莺 100
莽 100
菀 100
菁 100
菅 100
菇 100
菈 100
菊 100
菌 100
菏 100
菓 100
菖 100
菘 100
菜 100
菟 100
菠 100
菡 100
菩 100
菫 100
華 100
菰 100
菱 100
菲 100
菴 100
菸 100
菽 100
萁 100
萃 100
萄 100
萊 100
萋 100
萌 100
萍 100
萎 100
萘 100
萜 100
萝 100
萤 100
营 100
萦 100
萧 100
萨 100
萩 100
萬 100
萱 100
萸 100
萼 100
落 100
葆 100
葉 100
著 100
葚 100
葛 100
葡 100
董 100
葦 100
葩 100
葫 100
葬 100
葭 100
葯 100
葱 100
葳 100
葵 100
葷 100
葺 100
蒂 100
蒋 100
蒌 100
蒐 100
蒔 100
蒗 100
蒙 100
蒜 100
蒞 100
蒟 100
蒡 100
蒨 100
蒯 100
蒲 100
蒸 100
蒹 100
蒻 100
蒼 100
蒽 100
蒿 100
蓁 100
蓄 100
蓆 100
蓉 100
蓋 100
蓐 100
蓑 100
蓓 100
蓖 100
蓝 100
蓟 100
蓥 100
蓦 100
蓬 100
蓮 100
蓼 100
蓿 100
蔑 100
蔓 100
蔔 100
蔗 100
蔘 100
蔚 100
蔡 100
蔣 100
蔥 100
蔦 100
蔫 100
蔬 100
蔭 100
蔵 100
蔷 100
蔺 100
蔻 100
蔼 100
蔽 100
蕁 100
蕃 100
蕈 100
蕉 100
蕊 100
蕎 100
蕗 100
蕙 100
蕤 100
蕨 100
蕩 100
蕪 100
蕭 100
蕲 100
蕴 100
蕾 100
薄 100
薅 100
薇 100
薈 100
薊 100
薏 100
薑 100
薔 100
薗 100
薙 100
薛 100
薦 100
薨 100
薩 100
薪 100
薫 100
薬 100
薮 100
薯 100
薰 100
薹 100
藁 100
藉 100
藍 100
藏 100
藐 100
藓 100
藕 100
藜 100
藝 100
藤 100
藥 100
藩 100
藪 100
藹 100
藺 100
藻 100
藿 100
蘅 100
蘆 100
蘇 100
蘊 100
蘋 100
蘑 100
蘖 100
蘭 100
蘸 100
蘿 100
虎 100
虏 100
虐 100
虑 100
虔 100
處 100
虚 100
虛 100
虜 100
虞 100
號 100
虢 100
虧 100
虫 100
虬 100
虱 100
虹 100
虻 100
虽 100
虾 100
蚀 100
蚁 100
蚂 100
蚊 100
蚌 100
蚓 100
蚕 100
蚜 100
蚝 100
蚣 100
蚤 100
蚧 100
蚩 100
蚪 100
蚬 100
蚯 100
蚱 100
蚵 100
蛀 100
蛄 100
蛆 100
蛇 100
蛉 100
蛊 100
蛋 100
蛍 100
蛎 100
蛏 100
蛐 100
蛔 100
蛙 100
蛛 100
蛟 100
蛤 100
蛭 100
蛮 100
蛯 100
蛰 100
蛳 100
蛸 100
蛹 100
蛻 100
蛾 100
蜀 100
蜂 100
蜃 100
蜆 100
蜇 100
蜈 100
蜉 100
蜊 100
蜍 100
蜒 100
蜓 100
蜕 100
蜗 100
蜘 100
蜚 100
蜜 100
蜡 100
蜢 100
蜥 100
蜱 100
蜴 100
蜷 100
蜻 100
蜿 100
蝇 100
蝈 100
蝉 100
蝋 100
蝌 100
蝎 100
蝕 100
蝗 100
蝙 100
蝠 100
蝥 100
蝦 100
蝮 100
蝴 100
蝶 100
蝸 100
蝼 100
蝿 100
螂 100
螃 100
螅 100
螈 100
融 100
螞 100
螟 100
螢 100
螨 100
螭 100
螯 100
螳 100
螺 100
蟀 100
蟄 100
蟆 100
蟋 100
蟎 100
蟑 100
蟒 100
蟠 100
蟬 100
蟮 100
蟲 100
蟳 100
蟹 100
蟻 100
蟾 100
蠅 100
蠍 100
蠔 100
蠕 100
蠟 100
蠡 100
蠢 100
蠣 100
蠱 100
蠶 100
蠹 100
蠻 100
血 100
衅 100
衆 100
行 100
衍 100
衒 100
術 100
衔 100
街 100
衙 100
衛 100
衝 100
衞 100
衡 100
衢 100
衣 100
补 100
表 100
衩 100
衫 100
衬 100
衮 100
衰 100
衲 100
衷 100
衹 100
衾 100
衿 100
袁 100
袂 100
袄 100
袅 100
袈 100
袋 100
袍 100
袒 100
袖 100
袜 100
袢 100
袤 100
袪 100
被 100
袭 100
袱 100
袴 100
袷 100
裁 100
裂 100
裄 100
装 100
裆 100
裏 100
裔 100
裕 100
裘 100
裙 100
補 100
裝 100
裟 100
裡 100
裤 100
裨 100
裱 100
裳 100
裴 100
裵 100
裸 100
裹 100
製 100
裾 100
褂 100
褄 100
複 100
褉 100
褋 100
褌 100
褍 100
褐 100
褒 100
褓 100
褔 100
褚 100
褛 100
褥 100
褪 100
褰 100
褲 100
褴 100
褶 100
褻 100
襁 100
襄 100
襌 100
襖 100
襞 100
襟 100
襦 100
襪 100
襯 100
襲 100
襷 100
西 100
要 100
覃 100
覆 100
覇 100
見 100
規 100
覓 100
視 100
覗 100
覚 100
覧 100
親 100
観 100
覷 100
覺 100
覽 100
觀 100
见 100
观 100
规 100
觅 100
视 100
览 100
觉 100
觊 100
觎 100
觐 100
觑 100
角 100
觞 100
解 100
觥 100
触 100
觯 100
觸 100
言 100
訂 100
訃 100
計 100
訊 100
討 100
訓 100
訕 100
訖 100
託 100
記 100
訛 100
訝 100
訟 100
訣 100
訥 100
訪 100
設 100
許 100
訳 100
訴 100
訶 100
診 100
註 100
証 100
訾 100
詆 100
詈 100
詐 100
詔 100
評 100
詛 100
詞 100
詠 100
詢 100
詣 100
試 100
詩 100
詫 100
詭 100
詮 100
詰 100
話 100
該 100
詳 100
詹 100
誂 100
誅 100
誇 100
誉 100
誊 100
誌 100
認 100
誓 100
誕 100
誘 100
語 100
誠 100
誡 100
誣 100
誤 100
誥 100
誦 100
誨 100
說 100
説 100
読 100
誰 100
課 100
誹 100
誼 100
調 100
諄 100
談 100
請 100
諌 100
諍 100
諏 100
諒 100
論 100
諗 100
諜 100
諡 100
諦 100
諧 100
諫 100
諭 100
諮 100
諱 100
諳 100
諷 100
諸 100
諺 100
諾 100
謀 100
謁 100
謂 100
謄 100
謇 100
謊 100
謎 100
謐 100
謗 100
謙 100
講 100
謝 100
謠 100
謡 100
謨 100
謬 100
謳 100
謹 100
謾 100
證 100
譏 100
識 100
譙 100
譚 100
譜 100
警 100
譬 100
譯 100
議 100
譲 100
譴 100
護 100
譽 100
讀 100
讃 100
變 100
讐 100
讓 100
讚 100
计 100
订 100
讣 100
认 100
讥 100
讧 100
讨 100
让 100
讪 100
讫 100
训 100
议 100
讯 100
记 100
讲 100
讳 100
讴 100
讶 100
讷 100
许 100
讹 100
论 100
讼 100
讽 100
设 100
访 100
诀 100
证 100
诃 100
评 100
诅 100
识 100
诈 100
诉 100
诊 100
诋 100
词 100
诏 100
译 100
诒 100
试 100
诗 100
诘 100
诙 100
诚 100
诛 100
话 100
诞 100
诟 100
诠 100
诡 100
询 100
诣 100
诤 100
该 100
详 100
诧 100
诨 100
诩 100
诫 100
诬 100
语 100
误 100
诰 100
诱 100
诲 100
说 100
诵 100
诶 100
请 100
诸 100
诺 100
读 100
诽 100
课 100
诿 100
谀 100
谁 100
调 100
谄 100
谅 100
谆 100
谈 100
谊 100
谋 100
谌 100
谍 100
谎 100
谏 100
谐 100
谑 100
谒 100
谓 100
谔 100
谕 100
谗 100
谘 100
谙 100
谚 100
谛 100
谜 100
谟 100
谡 100
谢 100
谣 100
谤 100
谥 100
谦 100
谧 100
谨 100
谩 100
谪 100
谬 100
谭 100
谯 100
谰 100
谱 100
谲 100
谴 100
谶 100
谷 100
谿 100
豁 100
豆 100
豇 100
豈 100
豉 100
豊 100
豌 100
豎 100
豐 100
豔 100
豕 100
豚 100
象 100
豢 100
豪 100
豫 100
豬 100
豸 100
豹 100
豺 100
貂 100
貅 100
貉 100
貌 100
貓 100
貔 100
貝 100
貞 100
負 100
財 100
貢 100
貧 100
貨 100
販 100
貪 100
貫 100
責 100
貯 100
貰 100
貳 100
貴 100
貶 100
買 100
貸 100
費 100
貼 100
貽 100
貿 100
賀 100
賁 100
賂 100
賃 100
賄 100
資 100
賈 100
賊 100
賑 100
賓 100
賛 100
賜 100
賞 100
賠 100
賢 100
賣 100
賤 100
賦 100
質 100
賬 100
賭 100
賴 100
賺 100
購 100
賽 100
贄 100
贅 100
贈 100
贊 100
贋 100
贍 100
贏 100
贓 100
贔 100
贖 100
贛 100
贝 100
贞 100
负 100
贡 100
财 100
责 100
贤 100
败 100
账 100
货 100
质 100
贩 100
贪 100
贫 100
贬 100
购 100
贮 100
贯 100
贰 100
贱 100
贲 100
贴 100
贵 100
贷 100
贸 100
费 100
贺 100
贻 100
贼 100
贾 100
贿 100
赁 100
赂 100
赃 100
资 100
赅 100
赈 100
赉 100
赊 100
赋 100
赌 100
赎 100
赏 100
赐 100
赓 100
赔 100
赖 100
赘 100
赚 100
赛 100
赝 100
赞 100
赟 100
赠 100
赡 100
赢 100
赣 100
赤 100
赦 100
赫 100
赭 100
走 100
赳 100
赴 100
赵 100
赶 100
起 100
趁 100
超 100
越 100
趋 100
趕 100
趙 100
趟 100
趣 100
趨 100
足 100
趴 100
趵 100
趸 100
趺 100
趾 100
跃 100
跄 100
跆 100
跋 100
跌 100
跎 100
跏 100
跑 100
跖 100
跚 100
跛 100
距 100
跟 100
跡 100
跤 100
跨 100
跪 100
跬 100
路 100
跳 100
践 100
跷 100
跺 100
跻 100
踉 100
踊 100
踌 100
踏 100
踐 100
踝 100
踞 100
踢 100
踩 100
踪 100
踮 100
踰 100
踱 100
踴 100
踵 100
踹 100
踽 100
蹂 100
蹄 100
蹇 100
蹈 100
蹉 100
蹊 100
蹋 100
蹌 100
蹑 100
蹒 100
蹙 100
蹟 100
蹤 100
蹦 100
蹩 100
蹬 100
蹭 100
蹲 100
蹴 100
蹶 100
蹼 100
蹿 100
躁 100
躅 100
躇 100
躊 100
躋 100
躍 100
躏 100
躓 100
躙 100
躪 100
身 100
躬 100
躯 100
躰 100
躲 100
躺 100
躾 100
軀 100
車 100
軋 100
軌 100
軍 100
軒 100
軟 100
転 100
軸 100
軼 100
軽 100
軾 100
較 100
載 100
輌 100
輒 100
輔 100
輕 100
輛 100
輝 100
輟 100
輥 100
輩 100
輪 100
輯 100
輳 100
輸 100
輻 100
輾 100
輿 100
轄 100
轅 100
轆 100
轉 100
轍 100
轎 100
轟 100
轢 100
车 100
轧 100
轨 100
轩 100
轫 100
转 100
轭 100
轮 100
软 100
轰 100
轲 100
轴 100
轶 100
轻 100
轼 100
载 100
轿 100
较 100
辄 100
辅 100
辆 100
辇 100
辈 100
辉 100
辊 100
辋 100
辍 100
辐 100
辑 100
输 100
辕 100
辖 100
辗 100
辘 100
辙 100
辛 100
辜 100
辞 100
辟 100
辣 100
辦 100
辨 100
辩 100
辫 100
辭 100
辮 100
辯 100
辰 100
辱 100
農 100
辷 100
边 100
辺 100
辻 100
込 100
辽 100
达 100
辿 100
迁 100
迂 100
迄 100
迅 100
过 100
迈 100
迎 100
运 100
近 100
返 100
还 100
这 100
进 100
远 100
违 100
连 100
迟 100
迢 100
迤 100
迥 100
迦 100
迩 100
迪 100
迫 100
迭 100
述 100
迴 100
迷 100
迸 100
迹 100
迺 100
追 100
退 100
送 100
适 100
逃 100
逅 100
逆 100
选 100
逊 100
逋 100
逍 100
透 100
逐 100
逑 100
递 100
逓 100
途 100
逕 100
逗 100
這 100
通 100
逛 100
逝 100
逞 100
速 100
造 100
逡 100
逢 100
連 100
逮 100
逯 100
週 100
進 100
逵 100
逶 100
逸 100
逹 100
逺 100
逻 100
逼 100
逾 100
遁 100
遂 100
遅 100
遇 100
遊 100
運 100
遍 100
過 100
遏 100
遐 100
遑 100
遒 100
道 100
達 100
違 100
遗 100
遙 100
遛 100
遜 100
遞 100
遠 100
遡 100
遢 100
遣 100
遥 100
遨 100
適 100
遭 100
遮 100
遲 100
遴 100
遵 100
遶 100
遷 100
選 100
遺 100
遼 100
遽 100
避 100
邀 100
邁 100
邂 100
邃 100
還 100
邇 100
邈 100
邉 100
邊 100
邋 100
邏 100
邑 100
邓 100
邕 100
邗 100
邙 100
邛 100
邝 100
邡 100
邢 100
那 100
邦 100
邨 100
邪 100
邬 100
邮 100
邯 100
邰 100
邱 100
邳 100
邵 100
邸 100
邹 100
邺 100
邻 100
郁 100
郅 100
郊 100
郎 100
郏 100
郑 100
郓 100
郗 100
郜 100
郝 100
郞 100
郡 100
郢 100
郦 100
郧 100
部 100
郫 100
郭 100
郯 100
郴 100
郵 100
郷 100
郸 100
都 100
郾 100
鄂 100
鄄 100
鄉 100
鄒 100
鄕 100
鄙 100
鄞 100
鄠 100
鄢 100
鄧 100
鄭 100
鄯 100
鄰 100
鄱 100
鄲 100
鄴 100
鄺 100
酆 100
酉 100
酊 100
酋 100
酌 100
配 100
酎 100
酐 100
酒 100
酔 100
酗 100
酚 100
酝 100
酞 100
酢 100
酣 100
酥 100
酩 100
酪 100
酬 100
酮 100
酯 100
酰 100
酱 100
酵 100
酶 100
酷 100
酸 100
酿 100
醂 100
醃 100
醇 100
醉 100
醋 100
醌 100
醍 100
醐 100
醒 100
醗 100
醚 100
醛 100
醜 100
醞 100
醣 100
醤 100
醪 100
醫 100
醬 100
醮 100
醯 100
醴 100
醸 100
醺 100
釀 100
釁 100
釆 100
采 100
釈 100
釉 100
释 100
釋 100
里 100
重 100
野 100
量 100
釐 100
金 100
釗 100
釘 100
釜 100
針 100
釣 100
釦 100
釧 100
釵 100
鈀 100
鈉 100
鈍 100
鈎 100
鈑 100
鈔 100
鈕 100
鈞 100
鈣 100
鈥 100
鈦 100
鈴 100
鈷 100
鈺 100
鈿 100
鉀 100
鉄 100
鉅 100
鉆 100
鉈 100
鉉 100
鉋 100
鉑 100
鉗 100
鉚 100
鉛 100
鉢 100
鉤 100
鉬 100
鉱 100
鉴 100
鉻 100
鉾 100
銀 100
銃 100
銅 100
銆 100
銇 100
銈 100
銉 100
銑 100
銓 100
銖 100
銘 100
銚 100
銜 100
銬 100
銭 100
銮 100
銳 100
銷 100
銹 100
鋁 100
鋅 100
鋏 100
鋒 100
鋤 100
鋪 100
鋭 100
鋰 100
鋲 100
鋳 100
鋸 100
鋼 100
錄 100
錆 100
錐 100
錘 100
錚 100
錠 100
錡 100
錢 100
錤 100
錦 100
錨 100
錫 100
錬 100
錮 100
錯 100
録 100
錳 100
錶 100
錾 100
鍊 100
鍋 100
鍍 100
鍏 100
鍐 100
鍑 100
鍒 100
鍓 100
鍔 100
鍖 100
鍗 100
鍘 100
鍙 100
鍚 100
鍛 100
鍜 100
鍝 100
鍣 100
鍥 100
鍦 100
鍩 100
鍬 100
鍮 100
鍰 100
鍵 100
鍺 100
鍼 100
鍾 100
鎂 100
鎊 100
鎌 100
鎏 100
鎔 100
鎖 100
鎚 100
鎢 100
鎧 100
鎬 100
鎭 100
鎮 100
鎯 100
鎰 100
鎳 100
鎴 100
鎵 100
鎶 100
鎷 100
鎸 100
鎺 100
鏀 100
鏁 100
鏂 100
鏃 100
鏄 100
鏈 100
鏉 100
鏊 100
鏋 100
鏌 100
鏍 100
鏑 100
鏖 100
鏗 100
鏘 100
鏞 100
鏟 100
鏡 100
鏢 100
鏤 100
鏽 100
鐏 100
鐐 100
鐗 100
鐘 100
鐙 100
鐜 100
鐞 100
鐡 100
鐢 100
鐨 100
鐩 100
鐪 100
鐫 100
鐮 100
鐲 100
鐳 100
鐵 100
鐸 100
鑄 100
鑊 100
鑑 100
鑒 100
鑣 100
鑫 100
鑰 100
鑲 100
鑳 100
鑷 100
鑼 100
鑽 100
鑾 100
鑿 100
针 100
钉 100
钊 100
钎 100
钏 100
钒 100
钓 100
钕 100
钗 100
钙 100
钚 100
钛 100
钜 100
钝 100
钞 100
钟 100
钠 100
钡 100
钢 100
钣 100
钤 100
钥 100
钦 100
钧 100
钨 100
钩 100
钮 100
钯 100
钰 100
钱 100
钳 100
钴 100
钵 100
钺 100
钻 100
钼 100
钽 100
钾 100
钿 100
铀 100
铁 100
铂 100
铃 100
铄 100
铅 100
铆 100
铉 100
铋 100
铌 100
铍 100
铎 100
铐 100
铑 100
铖 100
铛 100
铜 100
铝 100
铟 100
铠 100
铡 100
铢 100
铣 100
铤 100
铧 100
铨 100
铩 100
铬 100
铭 100
铮 100
铰 100
铱 100
铲 100
铳 100
铵 100
银 100
铸 100
铺 100
链 100
铿 100
销 100
锁 100
锂 100
锄 100
锅 100
锆 100
锈 100
锉 100
锋 100
锌 100
锏 100
锐 100
锑 100
锗 100
错 100
锚 100
锛 100
锟 100
锡 100
锢 100
锣 100
锤 100
锥 100
锦 100
锭 100
键 100
锯 100
锰 100
锲 100
锴 100
锵 100
锶 100
锷 100
锹 100
锺 100
锻 100
镀 100
镁 100
镂 100
镇 100
镉 100
镊 100
镌 100
镍 100
镐 100
镑 100
镓 100
镕 100
镖 100
镗 100
镛 100
镜 100
镝 100
镣 100
镦 100
镧 100
镫 100
镭 100
镯 100
镰 100
镳 100
镶 100
長 100
长 100
門 100
閃 100
閉 100
開 100
閏 100
閑 100
閒 100
間 100
閔 100
閘 100
関 100
閣 100
閤 100
閥 100
閨 100
閩 100
閫 100
閬 100
閭 100
閮 100
閱 100
閲 100
閻 100
閾 100
闂 100
闃 100
闄 100
闆 100
闇 100
闈 100
闊 100
闌 100
闍 100
闔 100
闕 100
闖 100
闘 100
關 100
闡 100
闢 100
门 100
闩 100
闪 100
闫 100
闭 100
问 100
闯 100
闰 100
闱 100
闲 100
闳 100
间 100
闵 100
闷 100
闸 100
闹 100
闺 100
闻 100
闽 100
闾 100
阀 100
阁 100
阂 100
阄 100
阅 100
阆 100
阈 100
阉 100
阎 100
阐 100
阑 100
阓 100
阔 100
阕 100
阖 100
阙 100
阚 100
阛 100
阜 100
队 100
阡 100
阪 100
阮 100
阱 100
防 100
阳 100
阴 100
阵 100
阶 100
阻 100
阿 100
陀 100
陂 100
附 100
际 100
陆 100
陇 100
陈 100
陉 100
陋 100
陌 100
降 100
限 100
陕 100
陛 100
陜 100
陝 100
陞 100
陟 100
陡 100
院 100
陣 100
除 100
陥 100
陨 100
险 100
陪 100
陰 100
陲 100
陳 100
陵 100
陶 100
陷 100
陸 100
険 100
陽 100
隂 100
隅 100
隆 100
隈 100
隊 100
隋 100
隍 100
階 100
随 100
隐 100
隔 100
隕 100
隗 100
隘 100
隙 100
際 100
障 100
隠 100
隣 100
隧 100
隨 100
險 100
隰 100
隱 100
隴 100
隶 100
隷 100
隸 100
隹 100
隻 100
隼 100
隽 100
难 100
雀 100
雁 100
雄 100
雅 100
集 100
雇 100
雉 100
雋 100
雌 100
雍 100
雎 100
雏 100
雑 100
雒 100
雕 100
雖 100
雙 100
雛 100
雜 100
雞 100
離 100
難 100
雨 100
雪 100
雫 100
雯 100
雰 100
雲 100
雳 100
零 100
雷 100
雹 100
電 100
雾 100
需 100
霁 100
霄 100
霆 100
震 100
霈 100
霉 100
霊 100
霍 100
霎 100
霏 100
霓 100
霖 100
霜 100
霞 100
霧 100
霭 100
霰 100
露 100
霸 100
霹 100
霽 100
霾 100
靂 100
靄 100
靈 100
靑 100
青 100
靓 100
靖 100
静 100
靚 100
靛 100
靜 100
非 100
靠 100
靡 100
面 100
靥 100
革 100
靭 100
靱 100
靳 100
靴 100
靶 100
靼 100
鞄 100
鞅 100
鞆 100
鞋 100
鞍 100
鞏 100
鞑 100
鞘 100
鞠 100
鞣 100
鞦 100
鞭 100
韆 100
韋 100
韌 100
韓 100
韜 100
韦 100
韧 100
韩 100
韫 100
韬 100
韭 100
韮 100
音 100
韵 100
韶 100
韻 100
響 100
頁 100
頂 100
頃 100
項 100
順 100
須 100
頌 100
預 100
頑 100
頒 100
頓 100
頗 100
領 100
頚 100
頡 100
頤 100
頫 100
頬 100
頭 100
頰 100
頴 100
頷 100
頸 100
頹 100
頻 100
頼 100
顆 100
題 100
額 100
顎 100
顏 100
顔 100
顕 100
願 100
顛 100
類 100
顧 100
顫 100
顯 100
顰 100
顱 100
页 100
顶 100
顷 100
项 100
顺 100
须 100
顼 100
顽 100
顾 100
顿 100
颀 100
颁 100
颂 100
预 100
颅 100
领 100
颇 100
颈 100
颉 100
颊 100
颌 100
颍 100
颐 100
频 100
颓 100
颔 100
颖 100
颗 100
题 100
颚 100
颛 100
颜 100
额 100
颞 100
颠 100
颢 100
颤 100
颦 100
颧 100
風 100
颯 100
颱 100
颶 100
飄 100
飆 100
风 100
飒 100
飓 100
飕 100
飘 100
飙 100
飚 100
飛 100
飞 100
食 100
飢 100
飨 100
飩 100
飪 100
飮 100
飯 100
飲 100
飴 100
飼 100
飽 100
飾 100
餃 100
餅 100
餉 100
養 100
餌 100
餍 100
餐 100
餓 100
餘 100
餚 100
餛 100
餞 100
餡 100
館 100
餮 100
餵 100
餾 100
饅 100
饉 100
饋 100
饌 100
饑 100
饒 100
饕 100
饗 100
饞 100
饥 100
饨 100
饪 100
饬 100
饭 100
饮 100
饯 100
饰 100
饱 100
饲 100
饴 100
饵 100
饶 100
饷 100
饺 100
饼 100
饽 100
饿 100
馀 100
馁 100
馃 100
馄 100
馅 100
馆 100
馈 100
馊 100
馋 100
馍 100
馏 100
馐 100
馒 100
馔 100
馕 100
首 100
馗 100
香 100
馥 100
馨 100
馬 100
馭 100
馮 100
馳 100
馴 100
駁 100
駄 100
駅 100
駆 100
駈 100
駐 100
駒 100
駕 100
駛 100
駝 100
駡 100
駭 100
駱 100
駿 100
騁 100
騎 100
騏 100
騒 100
験 100
騙 100
騨 100
騰 100
騷 100
驀 100
驅 100
驊 100
驍 100
驕 100
驗 100
驚 100
驛 100
驟 100
驢 100
驤 100
驥 100
驪 100
马 100
驭 100
驮 100
驯 100
驰 100
驱 100
驳 100
驴 100
驶 100
驷 100
驸 100
驹 100
驻 100
驼 100
驾 100
驿 100
骁 100
骂 100
骄 100
骅 100
骆 100
骇 100
骈 100
骊 100
骋 100
验 100
骏 100
骐 100
骑 100
骗 100
骚 100
骛 100
骜 100
骞 100
骠 100
骡 100
骤 100
骥 100
骧 100
骨 100
骯 100
骰 100
骶 100
骷 100
骸 100
骼 100
髂 100
髄 100
髅 100
髋 100
髌 100
髏 100
髑 100
髒 100
髓 100
體 100
髖 100
高 100
髙 100
髦 100
髪 100
髭 100
髮 100
髯 100
髻 100
鬃 100
鬆 100
鬍 100
鬓 100
鬘 100
鬚 100
鬟 100
鬢 100
鬣 100
鬥 100
鬧 100
鬨 100
鬪 100
鬱 100
鬼 100
魁 100
魂 100
魃 100
魄 100
魅 100
魇 100
魉 100
魍 100
魎 100
魏 100
魑 100
魔 100
魘 100
魚 100
魯 100
魷 100
鮎 100
鮑 100
鮒 100
鮨 100
鮪 100
鮫 100
鮭 100
鮮 100
鯉 100
鯊 100
鯖 100
鯛 100
鯨 100
鯰 100
鯱 100
鯵 100
鰆 100
鰐 100
鰤 100
鰭 100
鰯 100
鰲 100
鰹 100
鰻 100
鱈 100
鱒 100
鱗 100
鱧 100
鱷 100
鱸 100
鱼 100
鱿 100
鲁 100
鲅 100
鲇 100
鲈 100
鲍 100
鲑 100
鲛 100
鲜 100
鲟 100
鲢 100
鲤 100
鲨 100
鲫 100
鲲 100
鲳 100
鲶 100
鲷 100
鲸 100
鳃 100
鳄 100
鳅 100
鳌 100
鳍 100
鳎 100
鳏 100
鳕 100
鳖 100
鳗 100
鳜 100
鳝 100
鳞 100
鳟 100
鳥 100
鳩 100
鳳 100
鳴 100
鳶 100
鴉 100
鴎 100
鴛 100
鴦 100
鴨 100
鴻 100
鴿 100
鵑 100
鵜 100
鵝 100
鵠 100
鵡 100
鵬 100
鵰 100
鵲 100
鵺 100
鶉 100
鶏 100
鶯 100
鶴 100
鷄 100
鷗 100
鷲 100
鷹 100
鷺 100
鸚 100
鸞 100
鸟 100
鸠 100
鸡 100
鸢 100
鸣 100
鸥 100
鸦 100
鸨 100
鸩 100
鸪 100
鸭 100
鸮 100
鸯 100
鸳 100
鸵 100
鸽 100
鸾 100
鸿 100
鹂 100
鹃 100
鹄 100
鹅 100
鹈 100
鹉 100
鹊 100
鹌 100
鹏 100
鹑 100
鹕 100
鹗 100
鹘 100
鹜 100
鹞 100
鹤 100
鹦 100
鹧 100
鹩 100
鹫 100
鹬 100
鹭 100
鹮 100
鹰 100
鹳 100
鹵 100
鹸 100
鹹 100
鹼 100
鹽 100
鹿 100
麂 100
麋 100
麒 100
麓 100
麗 100
麝 100
麟 100
麥 100
麦 100
麩 100
麴 100
麵 100
麸 100
麹 100
麺 100
麻 100
麼 100
麽 100
麾 100
麿 100
黃 100
黄 100
黉 100
黍 100
黎 100
黏 100
黑 100
黒 100
黔 100
默 100
黙 100
黛 100
黜 100
黝 100
點 100
黟 100
黠 100
黨 100
黯 100
黴 100
黾 100
鼋 100
鼎 100
鼐 100
鼓 100
鼠 100
鼬 100
鼹 100
鼻 100
鼾 100
齁 100
齊 100
齋 100
齎 100
齐 100
齒 100
齟 100
齡 100
齢 100
齣 100
齦 100
齧 100
齬 100
齲 100
齿 100
龄 100
龅 100
龇 100
龈 100
龊 100
龋 100
龌 100
龍 100
龐 100
龔 100
龕 100
龙 100
龚 100
龛 100
龜 100
龟 100
꒳ 100
ꜳ 100
꞉ 100
ꞌ 100
ꦸ 100
꧋ 100
가 100
각 100
간 100
갇 100
갈 100
감 100
갑 100
값 100
갓 100
갔 100
강 100
갖 100
같 100
갚 100
갛 100
개 100
객 100
갠 100
갤 100
갬 100
갭 100
갯 100
갱 100
걀 100
걍 100
걔 100
거 100
걱 100
건 100
걷 100
걸 100
검 100
겁 100
것 100
겅 100
겉 100
겊 100
게 100
겐 100
겔 100
겟 100
겠 100
겨 100
격 100
겪 100
견 100
결 100
겸 100
겹 100
겼 100
경 100
곁 100
계 100
고 100
곡 100
곤 100
곧 100
골 100
곰 100
곱 100
곳 100
공 100
곶 100
과 100
곽 100
관 100
괄 100
괌 100
광 100
괜 100
괴 100
굉 100
교 100
굣 100
구 100
국 100
군 100
굳 100
굴 100
굵 100
굶 100
굽 100
굿 100
궁 100
궂 100
궈 100
권 100
궐 100
궜 100
궤 100
귀 100
귄 100
귈 100
귓 100
규 100
균 100
귤 100
그 100
극 100
근 100
글 100
긁 100
금 100
급 100
긋 100
긍 100
기 100
긴 100
길 100
김 100
깁 100
깃 100
깅 100
깊 100
까 100
깍 100
깎 100
깐 100
깔 100
깜 100
깝 100
깟 100
깡 100
깥 100
깨 100
깬 100
깰 100
깻 100
깼 100
꺼 100
꺽 100
꺾 100
껌 100
껍 100
껏 100
껐 100
껑 100
께 100
껴 100
꼈 100
꼬 100
꼭 100
꼰 100
꼴 100
꼼 100
꼽 100
꽁 100
꽂 100
꽃 100
꽈 100
꽉 100
꽝 100
꽤 100
꾀 100
꾸 100
꾹 100
꾼 100
꿀 100
꿇 100
꿈 100
꿉 100
꿋 100
꿍 100
꿎 100
꿔 100
꿨 100
꿩 100
꿰 100
뀌 100
뀐 100
뀔 100
뀝 100
끄 100
끈 100
끉 100
끊 100
끌 100
끓 100
끔 100
끕 100
끖 100
끗 100
끝 100
끼 100
끽 100
낀 100
낄 100
낌 100
낍 100
나 100
낙 100
낚 100
난 100
날 100
낡 100
남 100
납 100
낫 100
났 100
낭 100
낮 100
낯 100
낱 100
낳 100
내 100
낵 100
낸 100
낼 100
냄 100
냅 100
냈 100
냉 100
냐 100
냠 100
냥 100
너 100
넉 100
넋 100
넌 100
널 100
넓 100
넘 100
넛 100
넣 100
네 100
넥 100
넨 100
넬 100
넵 100
넷 100
넸 100
녀 100
녁 100
년 100
념 100
녔 100
녕 100
녘 100
노 100
녹 100
논 100
놀 100
놈 100
놉 100
놋 100
농 100
높 100
놓 100
놔 100
놨 100
뇌 100
뇨 100
누 100
눅 100
눈 100
눌 100
눔 100
눕 100
눠 100
눴 100
뉘 100
뉜 100
뉩 100
뉴 100
늄 100
느 100
늑 100
는 100
늘 100
늙 100
늠 100
능 100
늦 100
늪 100
늬 100
니 100
닉 100
닌 100
닐 100
님 100
닙 100
닛 100
닝 100
다 100
닥 100
닦 100
단 100
닫 100
달 100
닭 100
닮 100
닳 100
담 100
답 100
닷 100
당 100
닻 100
닿 100
대 100
댁 100
댄 100
댈 100
댐 100
댑 100
댓 100
댔 100
댕 100
더 100
덕 100
던 100
덜 100
덟 100
덤 100
덥 100
덧 100
덩 100
덫 100
덮 100
데 100
덱 100
덴 100
델 100
뎀 100
뎃 100
뎅 100
뎌 100
도 100
독 100
돈 100
돋 100
돌 100
돔 100
돕 100
돗 100
동 100
돛 100
돼 100
됐 100
되 100
된 100
될 100
됨 100
됩 100
두 100
둑 100
둔 100
둘 100
둠 100
둡 100
둥 100
둬 100
뒀 100
뒤 100
뒷 100
듀 100
듈 100
듐 100
드 100
득 100
든 100
듣 100
들 100
듬 100
듭 100
듯 100
등 100
디 100
딕 100
딘 100
딛 100
딜 100
딤 100
딥 100
딧 100
딩 100
딪 100
따 100
딱 100
딴 100
딸 100
땀 100
땄 100
땅 100
땋 100
때 100
땐 100
땜 100
땠 100
땡 100
떄 100
떠 100
떡 100
떤 100
떨 100
떫 100
떳 100
떴 100
떻 100
떼 100
뗀 100
뗄 100
뗏 100
뗐 100
또 100
똑 100
똘 100
똥 100
뚜 100
뚝 100
뚤 100
뚫 100
뚱 100
뛰 100
뛴 100
뛸 100
뜁 100
뜨 100
뜩 100
뜬 100
뜯 100
뜰 100
뜸 100
뜹 100
뜻 100
띄 100
띈 100
띔 100
띕 100
띠 100
띤 100
라 100
락 100
란 100
랄 100
람 100
랍 100
랏 100
랐 100
랑 100
랗 100
래 100
랙 100
랜 100
랠 100
램 100
랩 100
랫 100
랬 100
랭 100
랴 100
략 100
량 100
러 100
럭 100
런 100
럴 100
럼 100
럽 100
럿 100
렀 100
렁 100
렇 100
레 100
렉 100
렌 100
렐 100
렘 100
렙 100
렛 100
렝 100
려 100
력 100
련 100
렬 100
렴 100
렵 100
렷 100
렸 100
령 100
례 100
롄 100
로 100
록 100
론 100
롤 100
롬 100
롭 100
롯 100
롱 100
뢰 100
료 100
룡 100
루 100
룩 100
룬 100
룰 100
룸 100
룹 100
룻 100
뤄 100
뤘 100
뤼 100
류 100
륙 100
륜 100
률 100
륨 100
륭 100
르 100
른 100
를 100
름 100
릅 100
릇 100
릉 100
릎 100
리 100
릭 100
린 100
릴 100
림 100
립 100
릿 100
링 100
마 100
막 100
만 100
많 100
맏 100
말 100
맑 100
맘 100
맙 100
맛 100
망 100
맞 100
맡 100
맣 100
매 100
맥 100
맨 100
맬 100
맴 100
맵 100
맷 100
맹 100
맺 100
머 100
먹 100
먼 100
멀 100
멈 100
멋 100
멍 100
메 100
멕 100
멘 100
멜 100
멤 100
멧 100
멩 100
며 100
면 100
멸 100
몄 100
명 100
몇 100
모 100
목 100
몫 100
몬 100
몰 100
몸 100
몹 100
못 100
몽 100
묘 100
무 100
묵 100
묶 100
문 100
묻 100
물 100
묽 100
뭄 100
뭅 100
뭇 100
뭉 100
뭐 100
뭔 100
뭘 100
뭡 100
뮌 100
뮤 100
뮬 100
뮴 100
므 100
믈 100
미 100
믹 100
민 100
믿 100
밀 100
밈 100
밉 100
밋 100
밌 100
밍 100
및 100
밑 100
바 100
박 100
밖 100
반 100
받 100
발 100
밝 100
밟 100
밤 100
밥 100
밧 100
방 100
밭 100
배 100
백 100
밴 100
밸 100
뱀 100
뱃 100
뱅 100
뱉 100
버 100
벅 100
번 100
벌 100
범 100
법 100
벗 100
벙 100
벚 100
베 100
벡 100
벤 100
벧 100
벨 100
벳 100
벵 100
벼 100
벽 100
변 100
별 100
볍 100
병 100
볕 100
보 100
복 100
볶 100
본 100
볼 100
봄 100
봅 100
봇 100
봉 100
봐 100
봤 100
봬 100
뵐 100
뵙 100
부 100
북 100
분 100
불 100
붉 100
붐 100
붓 100
붕 100
붙 100
뷔 100
뷰 100
뷴 100
뷸 100
브 100
븐 100
블 100
비 100
빅 100
빈 100
빌 100
빔 100
빕 100
빗 100
빙 100
빚 100
빛 100
빠 100
빡 100
빤 100
빨 100
빴 100
빵 100
빼 100
빽 100
뺀 100
뺄 100
뺍 100
뺏 100
뺐 100
뺑 100
뺨 100
뻐 100
뻑 100
뻔 100
뻗 100
뻘 100
뻣 100
뻤 100
뻥 100
뼈 100
뼘 100
뼛 100
뽀 100
뽐 100
뽑 100
뽕 100
뾰 100
뿅 100
뿌 100
뿍 100
뿐 100
뿔 100
뿜 100
쁘 100
쁜 100
쁠 100
쁨 100
쁩 100
삐 100
사 100
삭 100
산 100
살 100
삶 100
삼 100
삽 100
삿 100
샀 100
상 100
샅 100
새 100
색 100
샌 100
샐 100
샘 100
샛 100
생 100
샤 100
샬 100
샴 100
샵 100
샷 100
샹 100
섀 100
서 100
석 100
섞 100
선 100
섣 100
설 100
섬 100
섭 100
섯 100
섰 100
성 100
세 100
섹 100
센 100
셀 100
셈 100
셉 100
셋 100
셔 100
션 100
셜 100
셧 100
셨 100
셰 100
셸 100
소 100
속 100
손 100
솔 100
솜 100
솟 100
송 100
솥 100
쇄 100
쇠 100
쇼 100
숀 100
숄 100
숍 100
숏 100
수 100
숙 100
순 100
숟 100
술 100
숨 100
숫 100
숭 100
숯 100
숱 100
숲 100
숴 100
쉐 100
쉘 100
쉬 100
쉰 100
쉴 100
쉼 100
쉽 100
쉿 100
슈 100
슐 100
슘 100
슛 100
슝 100
스 100
슥 100
슨 100
슬 100
슭 100
슴 100
습 100
슷 100
승 100
슽 100
시 100
식 100
신 100
싣 100
실 100
싫 100
심 100
십 100
싯 100
싱 100
싶 100
싸 100
싹 100
싼 100
쌀 100
쌈 100
쌉 100
쌌 100
쌍 100
쌓 100
쌔 100
쌤 100
쌩 100
써 100
썩 100
썬 100
썰 100
썸 100
썹 100
썼 100
썽 100
쎄 100
쎈 100
쏘 100
쏙 100
쏜 100
쏟 100
쏠 100
쏩 100
쏭 100
쏴 100
쐈 100
쐐 100
쑤 100
쑥 100
쓰 100
쓱 100
쓴 100
쓸 100
씀 100
씁 100
씌 100
씨 100
씩 100
씬 100
씰 100
씹 100
씻 100
씽 100
아 100
악 100
안 100
앉 100
않 100
알 100
앎 100
앓 100
암 100
압 100
앗 100
았 100
앙 100
앞 100
애 100
액 100
앤 100
앨 100
앰 100
앱 100
앳 100
앵 100
야 100
약 100
얀 100
얄 100
얇 100
얌 100
얏 100
양 100
얕 100
얗 100
얘 100
어 100
억 100
언 100
얹 100
얻 100
얼 100
얽 100
엄 100
업 100
없 100
엇 100
었 100
엉 100
엊 100
엌 100
엎 100
에 100
엑 100
엔 100
엘 100
엠 100
엡 100
엣 100
엥 100
여 100
역 100
엮 100
연 100
열 100
엷 100
염 100
엽 100
엿 100
였 100
영 100
옅 100
옆 100
옇 100
예 100
옌 100
옐 100
옛 100
오 100
옥 100
온 100
올 100
옮 100
옳 100
옴 100
옵 100
옷 100
옹 100
옻 100
와 100
왁 100
완 100
왈 100
왑 100
왓 100
왔 100
왕 100
왜 100
왠 100
외 100
왼 100
요 100
욕 100
욘 100
욥 100
용 100
우 100
욱 100
운 100
울 100
움 100
웁 100
웃 100
웅 100
워 100
웍 100
원 100
월 100
웜 100
웠 100
웡 100
웨 100
웬 100
웰 100
웸 100
웹 100
위 100
윅 100
윈 100
윌 100
윔 100
윕 100
윗 100
윙 100
유 100
육 100
윤 100
율 100
융 100
윷 100
으 100
윽 100
은 100
을 100
음 100
읍 100
응 100
의 100
이 100
익 100
인 100
일 100
읽 100
잃 100
임 100
입 100
잇 100
있 100
잉 100
잊 100
잎 100
자 100
작 100
잔 100
잖 100
잘 100
잠 100
잡 100
잣 100
잤 100
장 100
잦 100
재 100
잭 100
잰 100
잼 100
잽 100
잿 100
쟁 100
저 100
적 100
전 100
절 100
젊 100
점 100
접 100
젓 100
정 100
젖 100
제 100
젝 100
젠 100
젤 100
젭 100
젯 100
져 100
젼 100
졌 100
조 100
족 100
존 100
졸 100
좀 100
좁 100
종 100
좇 100
좋 100
좌 100
죄 100
죠 100
주 100
죽 100
준 100
줄 100
줌 100
줍 100
줏 100
중 100
줘 100
줬 100
쥐 100
쥔 100
쥘 100
쥬 100
쥴 100
즈 100
즉 100
즌 100
즐 100
즘 100
즙 100
증 100
지 100
직 100
진 100
질 100
짊 100
짐 100
집 100
짓 100
징 100
짖 100
짙 100
짚 100
짜 100
짝 100
짠 100
짤 100
짧 100
짬 100
짭 100
짱 100
째 100
쨋 100
쨌 100
쨍 100
쩌 100
쩍 100
쩐 100
쩔 100
쩜 100
쩝 100
쩡 100
쪄 100
쪼 100
쪽 100
쫀 100
쫄 100
쫌 100
쫓 100
쫙 100
쬐 100
쭈 100
쭉 100
쮿 100
쯔 100
쯤 100
찌 100
찍 100
찎 100
찐 100
찔 100
찜 100
찝 100
찡 100
찢 100
차 100
착 100
찬 100
찮 100
찰 100
참 100
찹 100
찻 100
찼 100
창 100
찾 100
채 100
책 100
챈 100
챌 100
챔 100
챕 100
챗 100
챙 100
챤 100
처 100
척 100
천 100
철 100
첨 100
첩 100
첫 100
청 100
체 100
첸 100
첼 100
쳇 100
쳐 100
쳤 100
초 100
촉 100
촌 100
촘 100
촛 100
총 100
촨 100
촬 100
최 100
쵸 100
추 100
축 100
춘 100
출 100
춤 100
춥 100
춧 100
충 100
춰 100
췄 100
췌 100
취 100
츄 100
츠 100
측 100
츨 100
츰 100
층 100
치 100
칙 100
친 100
칠 100
침 100
칩 100
칫 100
칭 100
카 100
칵 100
칸 100
칼 100
캄 100
캇 100
캉 100
캐 100
캔 100
캘 100
캠 100
캡 100
캣 100
캥 100
캬 100
커 100
컥 100
컨 100
컫 100
컬 100
컴 100
컵 100
컷 100
컸 100
케 100
켄 100
켈 100
켓 100
켜 100
켠 100
켤 100
켭 100
켰 100
코 100
콕 100
콘 100
콜 100
콤 100
콥 100
콧 100
콩 100
콰 100
쾅 100
쾌 100
쾰 100
쿄 100
쿠 100
쿡 100
쿤 100
쿨 100
쿰 100
쿵 100
쿼 100
퀀 100
퀄 100
퀘 100
퀴 100
퀵 100
퀸 100
퀼 100
큐 100
큘 100
크 100
큰 100
클 100
큼 100
큽 100
키 100
킥 100
킨 100
킬 100
킴 100
킵 100
킷 100
킹 100
타 100
탁 100
탄 100
탈 100
탉 100
탐 100
탑 100
탓 100
탔 100
탕 100
태 100
택 100
탠 100
탤 100
탬 100
탭 100
탯 100
탰 100
탱 100
터 100
턱 100
턴 100
털 100
텀 100
텁 100
텃 100
텅 100
테 100
텍 100
텐 100
텔 100
템 100
텝 100
텨 100
톈 100
토 100
톡 100
톤 100
톨 100
톰 100
톱 100
통 100
퇴 100
투 100
툭 100
툰 100
툴 100
툼 100
퉁 100
퉈 100
퉤 100
튀 100
튄 100
튈 100
튕 100
튜 100
튠 100
튤 100
튬 100
트 100
특 100
튼 100
튿 100
틀 100
틈 100
틋 100
티 100
틱 100
틴 100
틸 100
팀 100
팁 100
팅 100
파 100
팍 100
팎 100
판 100
팔 100
팜 100
팝 100
팟 100
팠 100
팡 100
팥 100
패 100
팩 100
팬 100
팰 100
팸 100
팹 100
팻 100
팽 100
퍼 100
퍽 100
펀 100
펄 100
펌 100
펍 100
펑 100
페 100
펙 100
펜 100
펠 100
펩 100
펫 100
펭 100
펴 100
편 100
펼 100
폄 100
폈 100
평 100
폐 100
포 100
폭 100
폰 100
폴 100
폼 100
폿 100
퐁 100
표 100
푸 100
푹 100
푼 100
풀 100
품 100
풉 100
풋 100
풍 100
퓨 100
퓰 100
퓸 100
프 100
픈 100
플 100
픔 100
픕 100
피 100
픽 100
핀 100
필 100
핌 100
핍 100
핏 100
핑 100
하 100
학 100
한 100
할 100
핥 100
함 100
합 100
핫 100
항 100
해 100
핵 100
핸 100
핼 100
햄 100
햅 100
햇 100
했 100
행 100
햐 100
향 100
허 100
헉 100
헌 100
헐 100
험 100
헛 100
헝 100
헤 100
헥 100
헨 100
헬 100
헴 100
헷 100
헹 100
혀 100
혁 100
현 100
혈 100
혐 100
협 100
혔 100
형 100
혜 100
호 100
혹 100
혼 100
홀 100
홈 100
홉 100
홋 100
홍 100
화 100
확 100
환 100
활 100
홧 100
황 100
횃 100
회 100
획 100
횟 100
횡 100
효 100
후 100
훅 100
훈 100
훌 100
훑 100
훔 100
훗 100
훤 100
훨 100
훼 100
휘 100
휙 100
휠 100
휩 100
휴 100
휼 100
흉 100
흐 100
흑 100
흔 100
흘 100
흙 100
흠 100
흡 100
흥 100
흩 100
희 100
흰 100
히 100
힌 100
힐 100
힘 100
힙 100
힛 100
힝 100
 100
 100
 100
 100
 100
 100
 100
 100
 100
 100
 100
 100
 100
 100
 100
 100
 100
 100
 100
 100
 100
 100
 100
 100
 100
 100
 100
 100
 100
 100
 100
 100
 100
 100
 100
 100
 100
 100
 100
 100
 100
 100
 100
 100
 100
 100
 100
 100
 100
 100
 100
 100
 100
 100
 100
 100
 100
 100
 100
 100
 100
 100
 100
 100
 100
 100
 100
 100
 100
 100
 100
 100
 100
 100
 100
 100
 100
 100
 100
 100
 100
 100
 100
 100
 100
 100
 100
 100
 100
 100
 100
 100
 100
 100
 100
 100
 100
 100
 100
 100
 100
 100
 100
 100
 100
 100
 100
 100
 100
 100
 100
 100
 100
 100
 100
 100
 100
 100
 100
 100
 100
 100
 100
 100
 100
 100
 100
 100
 100
 100
 100
 100
 100
 100
 100
 100
 100
 100
 100
 100
 100
 100
 100
 100
 100
 100
 100
 100
 100
 100
 100
 100
 100
 100
 100
 100
 100
 100
 100
 100
 100
 100
 100
 100
 100
 100
 100
 100
 100
 100
 100
 100
 100
 100
 100
 100
 100
 100
 100
 100
 100
 100
 100
 100
 100
 100
 100
 100
 100
 100
 100
 100
 100
 100
 100
 100
 100
 100
 100
 100
 100
 100
 100
 100
 100
 100
 100
 100
 100
 100
 100
 100
 100
 100
 100
 100
 100
 100
 100
 100
 100
 100
 100
 100
 100
 100
 100
 100
 100
 100
 100
 100
 100
 100
 100
 100
 100
 100
 100
 100
 100
 100
 100
 100
 100
 100
 100
 100
 100
 100
 100
 100
 100
 100
 100
 100
 100
 100
 100
 100
 100
 100
 100
 100
 100
 100
 100
 100
 100
 100
 100
 100
 100
 100
 100
 100
 100
 100
 100
 100
 100
 100
 100
 100
 100
 100
 100
 100
 100
 100
 100
 100
 100
 100
 100
 100
 100
 100
 100
 100
 100
 100
 100
 100
 100
 100
 100
 100
 100
 100
 100
 100
 100
 100
 100
 100
 100
 100
 100
 100
 100
 100
 100
 100
 100
 100
 100
 100
 100
 100
 100
 100
 100
 100
 100
 100
 100
 100
 100
 100
 100
 100
 100
 100
 100
 100
 100
 100
 100
 100
 100
 100
 100
 100
 100
 100
 100
 100
 100
 100
 100
 100
 100
 100
 100
 100
 100
 100
 100
 100
 100
 100
 100
 100
 100
 100
 100
 100
 100
 100
 100
 100
 100
 100
 100
 100
不 100
年 100
理 100
行 100
﨑 100
ﬀ 100
ﬁ 100
ﬂ 100
ﬃ 100
ﬔ 100
ﬕ 100
יִ 100
ײַ 100
שׂ 100
אַ 100
אָ 100
וּ 100
כּ 100
פּ 100
פֿ 100
ﭖ 100
ﭗ 100
ﭘ 100
ﭼ 100
ﭽ 100
ﮍ 100
ﮏ 100
ﮐ 100
ﮑ 100
ﮒ 100
ﮔ 100
ﮕ 100
ﮞ 100
ﮟ 100
ﮦ 100
ﮧ 100
ﮨ 100
ﮩ 100
ﮫ 100
ﮬ 100
ﮭ 100
ﮮ 100
ﮯ 100
ﯘ 100
ﯞ 100
ﯩ 100
ﯼ 100
ﯽ 100
ﯾ 100
ﯿ 100
ﰎ 100
ﰒ 100
ﰲ 100
ﱂ 100
ﱃ 100
ﱄ 100
ﱐ 100
ﱘ 100
ﱪ 100
ﱴ 100
ﱵ 100
ﲆ 100
ﲑ 100
ﲔ 100
ﲟ 100
ﲢ 100
ﲤ 100
ﲨ 100
ﳉ 100
ﳊ 100
ﳋ 100
ﳌ 100
ﳍ 100
ﳎ 100
ﳑ 100
ﳓ 100
ﳚ 100
ﳝ 100
﴾ 100
﴿ 100
ﶈ 100
ﷲ 100
ﷺ 100
ﷻ 100
﷼ 100
﷽ 100
︎ 100
️ 100
︰ 100
︱ 100
︵ 100
︶ 100
︽ 100
︾ 100
︿ 100
﹀ 100
﹁ 100
﹂ 100
﹏ 100
﹐ 100
﹑ 100
﹒ 100
﹔ 100
﹕ 100
﹖ 100
﹗ 100
﹙ 100
﹚ 100
﹝ 100
﹞ 100
﹡ 100
﹣ 100
ﹰ 100
ﺁ 100
ﺃ 100
ﺄ 100
ﺅ 100
ﺆ 100
ﺇ 100
ﺈ 100
ﺋ 100
ﺌ 100
ﺍ 100
ﺎ 100
ﺏ 100
ﺐ 100
ﺑ 100
ﺒ 100
ﺓ 100
ﺔ 100
ﺕ 100
ﺖ 100
ﺗ 100
ﺘ 100
ﺚ 100
ﺛ 100
ﺜ 100
ﺝ 100
ﺞ 100
ﺟ 100
ﺠ 100
ﺡ 100
ﺢ 100
ﺣ 100
ﺤ 100
ﺦ 100
ﺧ 100
ﺨ 100
ﺩ 100
ﺪ 100
ﺫ 100
ﺬ 100
ﺭ 100
ﺮ 100
ﺯ 100
ﺰ 100
ﺱ 100
ﺲ 100
ﺳ 100
ﺴ 100
ﺶ 100
ﺷ 100
ﺸ 100
ﺹ 100
ﺺ 100
ﺻ 100
ﺼ 100
ﺾ 100
ﺿ 100
ﻀ 100
ﻂ 100
ﻃ 100
ﻄ 100
ﻆ 100
ﻇ 100
ﻈ 100
ﻉ 100
ﻊ 100
ﻋ 100
ﻌ 100
ﻎ 100
ﻏ 100
ﻐ 100
ﻑ 100
ﻒ 100
ﻓ 100
ﻔ 100
ﻕ 100
ﻖ 100
ﻗ 100
ﻘ 100
ﻙ 100
ﻚ 100
ﻛ 100
ﻜ 100
ﻝ 100
ﻞ 100
ﻟ 100
ﻠ 100
ﻡ 100
ﻢ 100
ﻣ 100
ﻤ 100
ﻥ 100
ﻦ 100
ﻧ 100
ﻨ 100
ﻩ 100
ﻪ 100
ﻫ 100
ﻬ 100
ﻭ 100
ﻮ 100
ﻯ 100
ﻰ 100
ﻱ 100
ﻲ 100
ﻳ 100
ﻴ 100
ﻵ 100
ﻷ 100
ﻸ 100
ﻹ 100
ﻻ 100
ﻼ 100
！ 100
＂ 100
＃ 100
＄ 100
％ 100
＆ 100
＇ 100
（ 100
） 100
＊ 100
＋ 100
， 100
－ 100
． 100
／ 100
０ 100
１ 100
２ 100
３ 100
４ 100
５ 100
６ 100
７ 100
８ 100
９ 100
： 100
； 100
＜ 100
＝ 100
＞ 100
？ 100
＠ 100
Ａ 100
Ｂ 100
Ｃ 100
Ｄ 100
Ｅ 100
Ｆ 100
Ｇ 100
Ｈ 100
Ｉ 100
Ｊ 100
Ｋ 100
Ｌ 100
Ｍ 100
Ｎ 100
Ｏ 100
Ｐ 100
Ｑ 100
Ｒ 100
Ｓ 100
Ｔ 100
Ｕ 100
Ｖ 100
Ｗ 100
Ｘ 100
Ｙ 100
Ｚ 100
［ 100
＼ 100
］ 100
＾ 100
＿ 100
｀ 100
ａ 100
ｂ 100
ｃ 100
ｄ 100
ｅ 100
ｆ 100
ｇ 100
ｈ 100
ｉ 100
ｊ 100
ｋ 100
ｌ 100
ｍ 100
ｎ 100
ｏ 100
ｐ 100
ｑ 100
ｒ 100
ｓ 100
ｔ 100
ｕ 100
ｖ 100
ｗ 100
ｘ 100
ｙ 100
ｚ 100
｛ 100
｜ 100
｝ 100
～ 100
｡ 100
｢ 100
｣ 100
､ 100
･ 100
ｦ 100
ｧ 100
ｨ 100
ｪ 100
ｫ 100
ｬ 100
ｭ 100
ｮ 100
ｯ 100
ｰ 100
ｱ 100
ｲ 100
ｳ 100
ｴ 100
ｵ 100
ｶ 100
ｷ 100
ｸ 100
ｹ 100
ｺ 100
ｼ 100
ｽ 100
ｾ 100
ｿ 100
ﾀ 100
ﾁ 100
ﾂ 100
ﾃ 100
ﾄ 100
ﾅ 100
ﾆ 100
ﾉ 100
ﾊ 100
ﾋ 100
ﾌ 100
ﾍ 100
ﾎ 100
ﾏ 100
ﾐ 100
ﾑ 100
ﾒ 100
ﾔ 100
ﾗ 100
ﾘ 100
ﾙ 100
ﾚ 100
ﾛ 100
ﾜ 100
ﾝ 100
ﾞ 100
ﾟ 100
￠ 100
￡ 100
￢ 100
￣ 100
￥ 100
￭ 100
￼ 100
� 100
𝑎 100
𝑛 100
𝑡 100
𝑥 100
𝑦 100
🅴 100
🅾 100
🆓 100
🆔 100
🆕 100
🆗 100
🆚 100
🇦 100
🇧 100
🇨 100
🇩 100
🇪 100
🇫 100
🇬 100
🇭 100
🇮 100
🇯 100
🇰 100
🇱 100
🇲 100
🇳 100
🇴 100
🇵 100
🇷 100
🇸 100
🇹 100
🇺 100
🇻 100
🇼 100
🇽 100
🇾 100
🇿 100
🌀 100
🌃 100
🌄 100
🌅 100
🌈 100
🌊 100
🌌 100
🌍 100
🌎 100
🌏 100
🌐 100
🌕 100
🌙 100
🌚 100
🌛 100
🌝 100
🌞 100
🌟 100
🌠 100
🌤 100
🌧 100
🌪 100
🌬 100
🌱 100
🌲 100
🌳 100
🌴 100
🌵 100
🌶 100
🌷 100
🌸 100
🌹 100
🌺 100
🌻 100
🌼 100
🌾 100
🌿 100
🍀 100
🍁 100
🍂 100
🍃 100
🍄 100
🍅 100
🍆 100
🍇 100
🍉 100
🍊 100
🍋 100
🍌 100
🍍 100
🍎 100
🍏 100
🍐 100
🍑 100
🍒 100
🍓 100
🍔 100
🍕 100
🍗 100
🍚 100
🍜 100
🍝 100
🍞 100
🍟 100
🍥 100
🍦 100
🍧 100
🍩 100
🍪 100
🍫 100
🍬 100
🍭 100
🍯 100
🍰 100
🍲 100
🍳 100
🍴 100
🍵 100
🍷 100
🍸 100
🍹 100
🍺 100
🍻 100
🍼 100
🍽 100
🍾 100
🍿 100
🎀 100
🎁 100
🎂 100
🎃 100
🎄 100
🎅 100
🎆 100
🎇 100
🎈 100
🎉 100
🎊 100
🎋 100
🎎 100
🎒 100
🎓 100
🎗 100
🎙 100
🎞 100
🎡 100
🎤 100
🎥 100
🎧 100
🎨 100
🎩 100
🎪 100
🎫 100
🎬 100
🎭 100
🎮 100
🎯 100
🎲 100
🎵 100
🎶 100
🎸 100
🎹 100
🎻 100
🎼 100
🎾 100
🏀 100
🏁 100
🏃 100
🏄 100
🏅 100
🏆 100
🏇 100
🏈 100
🏊 100
🏋 100
🏍 100
🏒 100
🏔 100
🏕 100
🏖 100
🏘 100
🏙 100
🏚 100
🏝 100
🏟 100
🏠 100
🏡 100
🏢 100
🏥 100
🏨 100
🏩 100
🏫 100
🏬 100
🏰 100
🏳 100
🏴 100
🏵 100
🏷 100
🏹 100
🏻 100
🏼 100
🏽 100
🏾 100
🏿 100
🐇 100
🐈 100
🐉 100
🐌 100
🐍 100
🐎 100
🐐 100
🐑 100
🐒 100
🐓 100
🐔 100
🐕 100
🐘 100
🐙 100
🐚 100
🐛 100
🐝 100
🐞 100
🐟 100
🐠 100
🐢 100
🐣 100
🐥 100
🐦 100
🐧 100
🐬 100
🐭 100
🐮 100
🐯 100
🐰 100
🐱 100
🐲 100
🐳 100
🐴 100
🐵 100
🐶 100
🐷 100
🐸 100
🐺 100
🐻 100
🐼 100
🐾 100
👀 100
👁 100
👄 100
👅 100
👆 100
👇 100
👈 100
👉 100
👊 100
👋 100
👌 100
👍 100
👎 100
👏 100
👐 100
👑 100
👒 100
👓 100
👔 100
👕 100
👖 100
👗 100
👙 100
👚 100
👜 100
👟 100
👠 100
👡 100
👣 100
👤 100
👥 100
👦 100
👧 100
👨 100
👩 100
👪 100
👫 100
👬 100
👭 100
👮 100
👯 100
👰 100
👱 100
👳 100
👵 100
👶 100
👷 100
👸 100
👹 100
👻 100
👼 100
👽 100
👾 100
👿 100
💀 100
💁 100
💃 100
💄 100
💅 100
💆 100
💇 100
💈 100
💉 100
💊 100
💋 100
💌 100
💍 100
💎 100
💏 100
💐 100
💑 100
💒 100
💓 100
💔 100
💕 100
💖 100
💗 100
💘 100
💙 100
💚 100
💛 100
💜 100
💝 100
💞 100
💟 100
💠 100
💡 100
💢 100
💣 100
💤 100
💥 100
💦 100
💧 100
💨 100
💩 100
💪 100
💫 100
💬 100
💭 100
💮 100
💯 100
💰 100
💲 100
💳 100
💵 100
💶 100
💸 100
💻 100
💼 100
💾 100
💿 100
📄 100
📅 100
📆 100
📈 100
📊 100
📋 100
📌 100
📍 100
📎 100
📏 100
📒 100
📓 100
📕 100
📖 100
📗 100
📘 100
📚 100
📜 100
📝 100
📞 100
📡 100
📢 100
📣 100
📤 100
📥 100
📦 100
📧 100
📩 100
📬 100
📮 100
📰 100
📱 100
📲 100
📷 100
📸 100
📹 100
📺 100
📻 100
📽 100
🔁 100
🔄 100
🔅 100
🔆 100
🔊 100
🔋 100
🔍 100
🔎 100
🔐 100
🔑 100
🔒 100
🔔 100
🔖 100
🔗 100
🔘 100
🔛 100
🔜 100
🔝 100
🔞 100
🔥 100
🔧 100
🔨 100
🔪 100
🔫 100
🔬 100
🔭 100
🔮 100
🔯 100
🔰 100
🔱 100
🔴 100
🔵 100
🔶 100
🔷 100
🔸 100
🔹 100
🔺 100
🔻 100
🔽 100
🕉 100
🕊 100
🕋 100
🕌 100
🕑 100
🕔 100
🕗 100
🕛 100
🕯 100
🕴 100
🕶 100
🕸 100
🕺 100
🖋 100
🖌 100
🖤 100
🖥 100
🗓 100
🗝 100
🗣 100
🗨 100
🗺 100
🗽 100
😀 100
😁 100
😂 100
😃 100
😄 100
😅 100
😆 100
😇 100
😈 100
😉 100
😊 100
😋 100
😌 100
😍 100
😎 100
😏 100
😐 100
😑 100
😒 100
😓 100
😔 100
😕 100
😖 100
😗 100
😘 100
😙 100
😚 100
😛 100
😜 100
😝 100
😞 100
😟 100
😠 100
😡 100
😢 100
😣 100
😤 100
😥 100
😦 100
😧 100
😨 100
😩 100
😪 100
😫 100
😬 100
😭 100
😮 100
😯 100
😰 100
😱 100
😲 100
😳 100
😴 100
😵 100
😶 100
😷 100
😸 100
😹 100
😺 100
😻 100
😽 100
🙀 100
🙁 100
🙂 100
🙃 100
🙄 100
🙅 100
🙆 100
🙇 100
🙈 100
🙉 100
🙊 100
🙋 100
🙌 100
🙎 100
🙏 100
🚀 100
🚌 100
🚑 100
🚒 100
🚕 100
🚖 100
🚗 100
🚘 100
🚙 100
🚚 100
🚛 100
🚜 100
🚧 100
🚨 100
🚩 100
🚫 100
🚲 100
🚴 100
🚶 100
🚼 100
🛍 100
🛑 100
🛒 100
🛠 100
🛫 100
🛵 100
🤐 100
🤑 100
🤓 100
🤔 100
🤕 100
🤖 100
🤗 100
🤘 100
🤙 100
🤝 100
🤞 100
🤠 100
🤡 100
🤣 100
🤤 100
🤦 100
🤨 100
🤩 100
🤪 100
🤫 100
🤭 100
🤯 100
🤰 100
🤲 100
🤳 100
🤷 100
🤸 100
🥀 100
🥁 100
🥂 100
🥇 100
🥑 100
🥕 100
🥗 100
🥛 100
🥰 100
🥳 100
🥺 100
🦀 100
🦁 100
🦄 100
🦅 100
🦊 100
🦋 100
🧀 100
🧐 100
🧘 100
🧚 100
🧠 100
🧡 100
🧳 100
𠕇 100
𤣥 100
򐂰 100
󰀄 100
􀂃 100
de 100
na 100
##s 100
la 100
en 100
in 100
sa 100
##a 100
на 100
the 100
to 100
se 100
##n 100
##e 100
da 100
##i 100
je 100
le 100
di 100
te 100
que 100
of 100
un 100
and 100
##t 100
an 100
is 100
og 100
ka 100
do 100
die 100
##m 100
ya 100
on 100
et 100
##r 100
##o 100
##u 100
for 100
at 100
të 100
er 100
да 100
10 100
ja 100
no 100
van 100
dan 100
li 100
ang 100
si 100
yang 100
za 100
за 100
para 100
ni 100
der 100
##en 100
el 100
не 100
du 100
ki 100
ng 100
ny 100
ar 100
ne 100
ta 100
på 100
##k 100
com 100
се 100
me 100
nga 100
ir 100
und 100
den 100
til 100
##l 100
som 100
##y 100
के 100
کے 100
##d 100
per 100
ma 100
as 100
il 100
wa 100
##na 100
het 100
med 100
nan 100
al 100
در 100
su 100
ve 100
ke 100
les 100
20 100
om 100
ku 100
છે 100
12 100
ko 100
به 100
mga 100
och 100
að 100
des 100
por 100
det 100
yn 100
The 100
15 100
και 100
een 100
##ni 100
##и 100
##an 100
30 100
it 100
##а 100
av 100
kan 100
you 100
ti 100
yo 100
##te 100
11 100
##j 100
##er 100
है 100
op 100
bir 100
##ta 100
una 100
agus 100
میں 100
në 100
में 100
##da 100
از 100
La 100
ay 100
##g 100
that 100
کی 100
في 100
és 100
##м 100
um 100
by 100
har 100
##ne 100
من 100
with 100
pa 100
ہے 100
##е 100
2019 100
od 100
af 100
az 100
att 100
so 100
##h 100
ou 100
be 100
eta 100
##ra 100
от 100
ba 100
##le 100
bi 100
по 100
es 100
##la 100
18 100
##ga 100
14 100
16 100
kwa 100
და 100
kaj 100
nie 100
की 100
##ka 100
во 100
var 100
ha 100
em 100
##in 100
De 100
00 100
ho 100
untuk 100
000 100
est 100
13 100
ak 100
los 100
va 100
sem 100
are 100
##de 100
dhe 100
το 100
go 100
bo 100
##н 100
να 100
##es 100
##ng 100
του 100
اور 100
au 100
Ang 100
17 100
##ti 100
##re 100
می 100
25 100
અને 100
100 100
mai 100
که 100
##li 100
dengan 100
для 100
your 100
was 100
we 100
mi 100
##у 100
met 100
din 100
tal 100
os 100
po 100
##ma 100
50 100
##ی 100
ini 100
19 100
ei 100
non 100
or 100
lan 100
pour 100
को 100
سے 100
är 100
dat 100
нь 100
par 100
ai 100
2018 100
24 100
را 100
##ch 100
##ы 100
της 100
və 100
और 100
##те 100
yon 100
до 100
של 100
од 100
zu 100
das 100
से 100
21 100
##z 100
##ing 100
##ς 100
##ja 100
sing 100
się 100
την 100
##та 100
în 100
vi 100
une 100
En 100
von 100
ing 100
این 100
با 100
In 100
##et 100
##т 100
mit 100
است 100
את 100
një 100
this 100
và 100
22 100
##mi 100
##on 100
##ri 100
për 100
nu 100
sur 100
کو 100
mu 100
##si 100
have 100
för 100
για 100
bu 100
##ي 100
www 100
एक 100
2017 100
με 100
che 100
from 100
आहे 100
awọn 100
tu 100
على 100
como 100
или 100
dia 100
का 100
##je 100
##ه 100
dari 100
40 100
##й 100
all 100
voor 100
ia 100
mo 100
ਹੈ 100
23 100
Na 100
##ko 100
##lar 100
pe 100
##no 100
##is 100
he 100
ਦੇ 100
für 100
های 100
ser 100
của 100
del 100
је 100
کا 100
Die 100
ji 100
##c 100
##х 100
та 100
ako 100
##us 100
2016 100
Sie 100
##do 100
από 100
dalam 100
eller 100
##se 100
oo 100
dans 100
Google 100
pou 100
air 100
este 100
پر 100
aan 100
man 100
##ya 100
ce 100
ag 100
اس 100
can 100
ist 100
km 100
že 100
có 100
που 100
что 100
ikke 100
што 100
ndi 100
##ة 100
ea 100
uma 100
als 100
will 100
##ar 100
##nya 100
со 100
نے 100
qui 100
##st 100
las 100
మరియు 100
##я 100
##b 100
El 100
##p 100
##ا 100
not 100
sin 100
hogy 100
ana 100
tidak 100
##em 100
##ים 100
ao 100
am 100
##і 100
men 100
dos 100
ga 100
2015 100
lo 100
हैं 100
##wa 100
re 100
ua 100
##sa 100
son 100
Il 100
bisa 100
ہیں 100
auf 100
ze 100
##на 100
##о 100
28 100
là 100
și 100
09 100
estas 100
ва 100
wat 100
im 100
pas 100
26 100
##को 100
Det 100
##v 100
amin 100
till 100
על 100
kuti 100
dem 100
që 100
online 100
##ki 100
27 100
##to 100
##S 100
ਨੂੰ 100
##me 100
##as 100
##A 100
እና 100
کہ 100
##ia 100
Le 100
over 100
No 100
##lo 100
vous 100
ба 100
##va 100
care 100
##ke 100
sy 100
##ে 100
##의 100
ein 100
my 100
2014 100
ili 100
mea 100
ਦੀ 100
ale 100
ile 100
itu 100
her 100
##um 100
mais 100
##ho 100
så 100
29 100
anu 100
akan 100
con 100
##ce 100
60 100
pentru 100
net 100
kanggo 100
tak 100
##ve 100
fra 100
या 100
из 100
##é 100
дар 100
cho 100
Se 100
pada 100
lub 100
են 100
pro 100
co 100
##에 100
पर 100
то 100
kun 100
ali 100
2013 100
more 100
στο 100
##os 100
jo 100
##ни 100
iyo 100
zijn 100
##om 100
jest 100
σε 100
եւ 100
માટે 100
او 100
ug 100
लिए 100
dit 100
##ed 100
##ba 100
ଏବଂ 100
New 100
##ን 100
Bu 100
आणि 100
2012 100
##mo 100
may 100
ah 100
##ს 100
##मा 100
##ca 100
31 100
plus 100
##í 100
alle 100
τα 100
##ом 100
કે 100
has 100
các 100
pri 100
Hotel 100
##it 100
isang 100
fan 100
##nt 100
##za 100
είναι 100
برای 100
##0 100
##di 100
##ă 100
video 100
რომ 100
са 100
ee 100
được 100
##2 100
kad 100
2011 100
##kan 100
##ات 100
up 100
των 100
Facebook 100
It 100
په 100
nā 100
sou 100
##ن 100
##ની 100
için 100
mar 100
To 100
कि 100
sé 100
##л 100
katika 100
iz 100
го 100
eine 100
##ה 100
han 100
nem 100
să 100
##ت 100
2010 100
##к 100
ஒரு 100
##ের 100
tau 100
oder 100
our 100
við 100
não 100
તે 100
adalah 100
##ми 100
one 100
web 100
ಮತ್ತು 100
##을 100
##то 100
##ת 100
що 100
як 100
koji 100
##ą 100
kev 100
ez 100
##да 100
ایک 100
ने 100
site 100
01 100
##ku 100
##at 100
##ha 100
sobre 100
Instagram 100
##от 100
Si 100
және 100
rau 100
##ek 100
trong 100
##ur 100
##ն 100
##f 100
##ৰ 100
tai 100
cov 100
##ка 100
sich 100
##া 100
##р 100
որ 100
די 100
но 100
but 100
##માં 100
không 100
ich 100
##га 100
மற்றும் 100
We 100
как 100
500 100
ati 100
##י 100
della 100
với 100
##E 100
##ी 100
35 100
ora 100
һәм 100
##tu 100
##ות 100
##ul 100
##ов 100
avec 100
##1 100
##ro 100
ки 100
ca 100
është 100
200 100
atau 100
seu 100
kita 100
при 100
time 100
bei 100
##ie 100
##ju 100
ها 100
cookies 100
kas 100
eu 100
##ся 100
http 100
ra 100
aku 100
nos 100
##x 100
nach 100
min 100
80 100
аз 100
ነው 100
about 100
Download 100
fi 100
לא 100
iki 100
##ը 100
một 100
data 100
ۋە 100
##ci 100
Anda 100
egy 100
##al 100
##ના 100
##не 100
ntawm 100
##이 100
हो 100
45 100
ਤੇ 100
nei 100
2009 100
##ler 100
##ı 100
cu 100
like 100
90 100
##go 100
##д 100
anda 100
seo 100
Sa 100
عن 100
dina 100
ett 100
nke 100
##র 100
##ak 100
08 100
ook 100
##I 100
##ze 100
cha 100
niet 100
með 100
fa 100
see 100
70 100
στην 100
new 100
##م 100
Un 100
ਅਤੇ 100
më 100
ona 100
##ning 100
2008 100
saya 100
their 100
şi 100
post 100
inte 100
##w 100
they 100
entre 100
ላይ 100
out 100
ac 100
ut 100
##ji 100
sau 100
##و 100
τον 100
vai 100
05 100
juga 100
más 100
##nu 100
any 100
##ны 100
uz 100
##ו 100
alla 100
mas 100
На 100
##ى 100
You 100
##O 100
oli 100
sam 100
байна 100
ada 100
što 100
##dan 100
##ë 100
This 100
##ને 100
jeg 100
##ли 100
##ले 100
##á 100
że 100
भी 100
vun 100
ayaa 100
pre 100
##man 100
##zi 100
ان 100
Vi 100
##ê 100
##jo 100
##ly 100
τη 100
آن 100
може 100
amb 100
ውስጥ 100
ഒരു 100
یہ 100
don 100
си 100
ekki 100
gen 100
fyrir 100
Je 100
##T 100
##는 100
werden 100
##ge 100
Les 100
##лар 100
##ment 100
kami 100
dapat 100
##г 100
ci 100
uye 100
aus 100
vil 100
tot 100
gan 100
32 100
##ye 100
03 100
##ren 100
ଏକ 100
saka 100
ਦਾ 100
##но 100
02 100
##ų 100
θα 100
thiab 100
yra 100
°C 100
II 100
nou 100
##ю 100
ye 100
یا 100
یک 100
mereka 100
τους 100
người 100
jag 100
##yo 100
نہیں 100
##3 100
það 100
07 100
کیا 100
els 100
06 100
ਨੇ 100
auch 100
עם 100
uchun 100
vir 100
##ر 100
##N 100
dei 100
04 100
##ية 100
Is 100
está 100
##M 100
##el 100
hindi 100
üçün 100
mis 100
##은 100
إلى 100
##ndo 100
estis 100
ann 100
##we 100
ad 100
جو 100
ik 100
2007 100
tout 100
jak 100
это 100
##का 100
orang 100
он 100
ito 100
ما 100
nas 100
नहीं 100
hat 100
жана 100
##ा 100
без 100
એક 100
##C 100
##R 100
##ir 100
##D 100
email 100
##ର 100
which 100
ही 100
Stock 100
করে 100
بھی 100
TV 100
أن 100
unha 100
sareng 100
##를 100
also 100
će 100
lebih 100
lati 100
ќе 100
##ა 100
##نى 100
না 100
##ට 100
tha 100
kuwa 100
ще 100
his 100
if 100
און 100
##ny 100
wie 100
##с 100
##в 100
skal 100
че 100
kui 100
sind 100
##ын 100
sig 100
##ها 100
palibot 100
بۇ 100
Li 100
ପାଇଁ 100
##ла 100
just 100
foi 100
että 100
##un 100
để 100
yr 100
##mu 100
lang 100
maar 100
bilan 100
##ina 100
بعد 100
As 100
юм 100
##5 100
kao 100
мен 100
bez 100
પર 100
τις 100
##L 100
fil 100
так 100
Der 100
33 100
aby 100
Du 100
300 100
##ov 100
אין 100
era 100
дека 100
все 100
##ки 100
##ó 100
pag 100
আৰু 100
ons 100
via 100
US 100
sont 100
votre 100
있습니다 100
oleh 100
##े 100
##gi 100
yog 100
خود 100
olan 100
parte 100
tas 100
##లో 100
##id 100
bạn 100
fun 100
##4 100
2000 100
36 100
những 100
br 100
##P 100
atu 100
Ma 100
ilə 100
uit 100
mail 100
##ի 100
##ти 100
under 100
شده 100
##ରେ 100
এবং 100
##가 100
Ko 100
Den 100
word 100
ਲਈ 100
បាន 100
तो 100
Az 100
এই 100
apa 100
ved 100
جي 100
bakal 100
bij 100
पनि 100
Di 100
זה 100
कर 100
##ان 100
đã 100
##ل 100
kom 100
qu 100
ere 100
Mae 100
ihe 100
##lik 100
sua 100
##am 100
οι 100
2006 100
blog 100
ਕਿ 100
công 100
وہ 100
##nin 100
ги 100
δεν 100
kako 100
34 100
Windows 100
##nda 100
או 100
tsy 100
##nde 100
who 100
არ 100
più 100
mau 100
door 100
cm 100
sama 100
pero 100
##ן 100
です 100
यह 100
ეს 100
come 100
been 100
इस 100
uu 100
bet 100
их 100
daha 100
شود 100
nuk 100
бар 100
had 100
også 100
dar 100
##co 100
لئے 100
##கள் 100
Ja 100
thể 100
##io 100
An 100
##د 100
##K 100
us 100
fir 100
get 100
bat 100
##sta 100
Het 100
Ne 100
##be 100
##ды 100
ප් 100
John 100
meg 100
##نىڭ 100
##ları 100
gu 100
ის 100
yi 100
су 100
kā 100
Hesabındaki 100
other 100
પણ 100
هم 100
when 100
tus 100
##ি 100
менен 100
ukuba 100
what 100
##ten 100
pikeun 100
किया 100
##B 100
San 100
ਇਸ 100
ina 100
kepada 100
##ই 100
free 100
því 100
dag 100
into 100
dass 100
soo 100
##ен 100
ਵਿੱਚ 100
સાથે 100
mm 100
Al 100
##6 100
##hi 100
הוא 100
##or 100
##ш 100
38 100
xwe 100
He 100
Da 100
साथ 100
kung 100
사진 100
##ów 100
तर 100
آپ 100
kana 100
37 100
యొక్క 100
##وں 100
bila 100
sono 100
ਤੋਂ 100
என்று 100
##ක් 100
##8 100
dla 100
же 100
##den 100
foto 100
ਨਾਲ 100
telah 100
naar 100
sit 100
48 100
make 100
تھا 100
##7 100
være 100
karo 100
بىر 100
film 100
ju 100
करने 100
For 100
లో 100
së 100
tsa 100
##né 100
இந்த 100
id 100
مع 100
Men 100
##mos 100
chun 100
download 100
arī 100
them 100
համար 100
tại 100
פון 100
bhfuil 100
##ní 100
nasod 100
mer 100
tse 100
were 100
wir 100
år 100
55 100
ಎಂದು 100
från 100
Video 100
ten 100
qhov 100
Dr 100
https 100
că 100
کرنے 100
##س 100
вы 100
deze 100
aj 100
ning 100
eng 100
39 100
##9 100
satu 100
##ä 100
nous 100
ole 100
olarak 100
75 100
کر 100
नाही 100
City 100
##ks 100
leis 100
kwenye 100
hàng 100
kot 100
khi 100
ṣe 100
2005 100
meer 100
oma 100
anak 100
nije 100
tam 100
تو 100
jako 100
ਹਨ 100
##U 100
eru 100
về 100
##го 100
sie 100
##pa 100
белән 100
како 100
##ত 100
ano 100
worden 100
hauv 100
də 100
ότι 100
forma 100
kuma 100
On 100
ama 100
ter 100
##jn 100
some 100
деп 100
information 100
##ದ 100
איז 100
##F 100
nad 100
aux 100
there 100
tan 100
##il 100
Android 100
ја 100
##र 100
چې 100
##ם 100
samo 100
##の 100
jou 100
wird 100
42 100
និង 100
##ों 100
über 100
biex 100
##न 100
##lor 100
##ين 100
ireo 100
سال 100
Et 100
##п 100
website 100
ته 100
его 100
lahko 100
fè 100
تا 100
esta 100
most 100
ID 100
150 100
Twitter 100
kama 100
If 100
Ka 100
था 100
dig 100
sen 100
mill 100
##లు 100
##ੀ 100
ek 100
này 100
menjadi 100
##ach 100
sed 100
mal 100
đến 100
Es 100
##ā 100
За 100
einen 100
##î 100
muaj 100
##க் 100
ndị 100
##G 100
##ය 100
would 100
lagi 100
hari 100
44 100
minn 100
##ப் 100
zum 100
ఒక 100
##à 100
iPhone 100
muri 100
tako 100
සහ 100
کې 100
##lu 100
بىلەن 100
vagy 100
##ů 100
how 100
kiel 100
làm 100
pi 100
като 100
##ма 100
sunt 100
bụ 100
400 100
või 100
għal 100
כל 100
##ok 100
få 100
##କୁ 100
##ə 100
koje 100
sebagai 100
từ 100
need 100
2004 100
##त 100
tem 100
থেকে 100
iš 100
##ns 100
oraz 100
kann 100
nog 100
##au 100
##ون 100
siya 100
Por 100
alebo 100
##ú 100
ای 100
niya 100
dị 100
dell 100
Co 100
##ను 100
Para 100
##ಗಳು 100
għall 100
Не 100
##ð 100
има 100
або 100
##ો 100
tahun 100
Do 100
Mi 100
##ik 100
už 100
له 100
dy 100
kay 100
than 100
only 100
##ь 100
કરી 100
бо 100
eo 100
maka 100
mat 100
people 100
roku 100
má 100
ın 100
##ның 100
##q 100
nó 100
use 100
cara 100
ένα 100
##ky 100
##ம் 100
ben 100
kommer 100
Allah 100
Los 100
##vi 100
nebo 100
Το 100
internet 100
##mente 100
Ni 100
kunye 100
pod 100
tempo 100
fuq 100
first 100
არის 100
Os 100
program 100
HD 100
nur 100
الله 100
przez 100
einer 100
lain 100
smo 100
##he 100
Das 100
про 100
па 100
계정 100
##ন 100
können 100
York 100
##과 100
wedi 100
हे 100
mana 100
43 100
ach 100
само 100
org 100
සඳහා 100
өчен 100
##ේ 100
yake 100
##ных 100
lui 100
sampeyan 100
41 100
する 100
trên 100
##du 100
인스타그램 100
seperti 100
sẽ 100
nel 100
vor 100
##ot 100
##ів 100
شد 100
أو 100
St 100
hun 100
lagu 100
mwen 100
gratis 100
its 100
##lla 100
dua 100
##ға 100
ແລະ 100
sú 100
##ው 100
##leri 100
##lər 100
##로 100
##ва 100
biti 100
hore 100
##tan 100
##ć 100
todos 100
dira 100
छन् 100
##ts 100
Dan 100
ass 100
fost 100
nav 100
##लाई 100
best 100
nhà 100
vào 100
##so 100
##H 100
##ат 100
banyak 100
war 100
hann 100
ary 100
##nte 100
Dit 100
##ę 100
ri 100
નથી 100
46 100
би 100
##ste 100
##V 100
##ў 100
ми 100
##ز 100
Tá 100
bien 100
hier 100
##dir 100
যে 100
ap 100
mae 100
করা 100
zo 100
##ні 100
game 100
можно 100
mund 100
જે 100
ég 100
fel 100
usa 100
einem 100
năm 100
2003 100
##im 100
რომელიც 100
Apple 100
izan 100
tá 100
একটি 100
dụng 100
ste 100
गया 100
ਵਿਚ 100
##ban 100
জন্য 100
kuri 100
pode 100
##ou 100
todo 100
##ai 100
như 100
well 100
මේ 100
99 100
mei 100
boleh 100
μια 100
болно 100
bis 100
التي 100
jî 100
হয় 100
USA 100
lai 100
##ش 100
##ге 100
##ter 100
aka 100
ukuthi 100
##vo 100
ani 100
tudi 100
chi 100
Nam 100
part 100
máis 100
uns 100
être 100
##nie 100
Park 100
لا 100
від 100
بر 100
ни 100
ви 100
##ol 100
hem 100
upp 100
##ные 100
##ın 100
які 100
នៅ 100
байгаа 100
##에서 100
49 100
##ਾਂ 100
бир 100
etc 100
nam 100
ու 100
भएको 100
ʻo 100
##ana 100
65 100
chì 100
जो 100
here 100
##ru 100
efter 100
bude 100
צו 100
##ով 100
##oj 100
47 100
są 100
sistema 100
##ك 100
wis 100
cookie 100
ਵੀ 100
sve 100
paling 100
ساتھ 100
får 100
kada 100
nws 100
hotel 100
bilo 100
##한 100
media 100
Per 100
wong 100
нас 100
wakati 100
##des 100
All 100
haben 100
ib 100
Po 100
want 100
##ো 100
seus 100
ahụ 100
tsis 100
ଏହି 100
tre 100
sonra 100
service 100
kasarangang 100
dette 100
Jeg 100
heeft 100
##ку 100
Internet 100
oa 100
ਸੀ 100
cikin 100
Online 100
##ી 100
nhất 100
hafa 100
end 100
shumë 100
kandi 100
moun 100
Pro 100
year 100
##nga 100
jẹ 100
bil 100
мы 100
moet 100
##ini 100
##નો 100
کند 100
help 100
san 100
##ке 100
foar 100
vida 100
beste 100
tersebut 100
cada 100
ver 100
kang 100
ses 100
##თ 100
##bi 100
ge 100
только 100
##ry 100
شما 100
sana 100
qo 100
hoe 100
học 100
бол 100
आहेत 100
στη 100
wordt 100
nhiều 100
##ad 100
μας 100
denne 100
Me 100
##ում 100
work 100
déi 100
ин 100
delle 100
##sti 100
това 100
jew 100
52 100
から 100
full 100
dels 100
fl 100
years 100
Service 100
##ть 100
2020 100
bị 100
koja 100
##으로 100
động 100
més 100
##сы 100
So 100
đầu 100
95 100
##が 100
үшін 100
де 100
frá 100
huwa 100
sangat 100
64 100
sal 100
ari 100
энэ 100
##ကို 100
гэж 100
це 100
ham 100
pli 100
ara 100
##ме 100
હતી 100
tym 100
##స్ 100
Ta 100
##ita 100
Ha 100
set 100
54 100
questo 100
bulan 100
##rs 100
##ut 100
ਇਹ 100
sudah 100
nui 100
نه 100
vel 100
Resimleri 100
ជា 100
futhi 100
way 100
você 100
2002 100
số 100
طور 100
##ui 100
1000 100
zur 100
##yi 100
##ہ 100
ئۇ 100
kiu 100
හා 100
##च 100
home 100
ʻia 100
day 100
##하는 100
nya 100
thành 100
които 100
2001 100
##ም 100
גם 100
now 100
51 100
casa 100
desde 100
çok 100
کرد 100
saat 100
China 100
ამ 100
##ный 100
იყო 100
ඇති 100
##ক 100
Foto 100
اگر 100
ngày 100
##lle 100
ima 100
му 100
noch 100
ការ 100
tra 100
هذا 100
##bo 100
##ಯ 100
ZIP 100
##తో 100
III 100
بود 100
hanya 100
Non 100
iad 100
вас 100
те 100
אַ 100
##ig 100
Энэ 100
##하고 100
##ר 100
ସେ 100
кои 100
mig 100
ли 100
sự 100
##з 100
mod 100
σας 100
ĉi 100
hi 100
59 100
មាន 100
rẹ 100
Cookies 100
##ine 100
##han 100
mua 100
uga 100
##tion 100
very 100
giá 100
នេះ 100
hiện 100
##gan 100
ते 100
tar 100
под 100
hè 100
link 100
jsou 100
##గా 100
##ben 100
wurde 100
sus 100
##nia 100
##das 100
##ного 100
ago 100
nin 100
strong 100
sản 100
##dos 100
కోసం 100
lại 100
tik 100
հետ 100
ጊዜ 100
kaya 100
##కు 100
ଏହା 100
dal 100
semua 100
anos 100
David 100
Te 100
ដែល 100
seg 100
izay 100
##ung 100
sinn 100
250 100
hal 100
hefur 100
53 100
##த் 100
ktoré 100
tema 100
jeung 100
quan 100
these 100
##্ 100
година 100
ایران 100
ఇది 100
take 100
##nı 100
Za 100
##က 100
अपने 100
लागि 100
mumkin 100
काम 100
Free 100
nak 100
##ты 100
yuav 100
EU 100
##ಗಳನ್ನು 100
andre 100
گیا 100
##ssa 100
##ção 100
года 100
56 100
होते 100
Ez 100
svoje 100
níos 100
##ers 100
много 100
hay 100
toe 100
##де 100
sempre 100
vos 100
##nih 100
ਨਹੀਂ 100
việc 100
ovat 100
tad 100
uw 100
atá 100
ການ 100
know 100
ata 100
after 100
باشد 100
Ny 100
bahin 100
##nın 100
duke 100
ex 100
##ty 100
hana 100
janë 100
bagi 100
aŭ 100
off 100
long 100
hele 100
##ਾ 100
##와 100
##ran 100
##zo 100
cette 100
Amerika 100
godine 100
ጋር 100
chỉ 100
58 100
##ների 100
når 100
Но 100
nang 100
loo 100
juu 100
social 100
ieu 100
##era 100
دو 100
secara 100
back 100
even 100
izany 100
nun 100
naman 100
zoo 100
##ний 100
roto 100
salah 100
##도 100
jam 100
cũng 100
##ра 100
tôi 100
##nje 100
ike 100
может 100
See 100
mp3 100
বা 100
##ът 100
top 100
##ný 100
Tha 100
##ť 100
##jen 100
کار 100
two 100
jaar 100
##ց 100
будет 100
600 100
بار 100
plan 100
Er 100
kanthi 100
joka 100
аст 100
##થી 100
model 100
bon 100
Una 100
էր 100
više 100
##  100
good 100
તો 100
##ble 100
##களை 100
kai 100
eða 100
baik 100
vez 100
baru 100
ble 100
им 100
kur 100
##च्या 100
##ल 100
57 100
##è 100
але 100
Для 100
kaip 100
120 100
করতে 100
ont 100
PC 100
são 100
было 100
того 100
eile 100
هو 100
masa 100
ʻana 100
ମୁଁ 100
کنید 100
હતો 100
ਹੋ 100
ወደ 100
design 100
Este 100
super 100
upang 100
##дан 100
inn 100
##ên 100
##ల 100
many 100
said 100
אני 100
blir 100
veel 100
Man 100
اپنے 100
##ske 100
út 100
anche 100
##rt 100
най 100
דער 100
време 100
Mar 100
anjeun 100
##án 100
হবে 100
3D 100
Việt 100
through 100
##ii 100
కూడా 100
##vat 100
hợp 100
##ea 100
bin 100
karena 100
tiek 100
jau 100
vya 100
તમે 100
నేను 100
هر 100
##ला 100
durch 100
she 100
tom 100
World 100
លោក 100
gaan 100
LED 100
##он 100
თუ 100
##を 100
grande 100
##ska 100
Ik 100
##мен 100
đó 100
##ч 100
ან 100
##ҳои 100
тоа 100
One 100
##ವನ್ನು 100
nước 100
##ll 100
నుండి 100
durante 100
##ken 100
##ව 100
час 100
##š 100
##ски 100
როგორც 100
##sen 100
volt 100
ወይም 100
jy 100
My 100
අතර 100
info 100
##lt 100
##ے 100
இது 100
##ት 100
And 100
ක් 100
xa 100
કરે 100
তে 100
egin 100
##ý 100
##tas 100
hy 100
edo 100
Europa 100
יותר 100
මෙම 100
tú 100
hebben 100
place 100
##क 100
zaidi 100
##mas 100
এর 100
##কে 100
solo 100
let 100
DE 100
##ной 100
comme 100
היא 100
##ción 100
##ње 100
kes 100
गरेको 100
##pe 100
##ל 100
800 100
base 100
भने 100
system 100
može 100
1999 100
then 100
دارد 100
יש 100
mag 100
##wo 100
गर्न 100
Ñy 100
##də 100
##ներ 100
India 100
hai 100
auto 100
##ją 100
kahi 100
நான் 100
bio 100
bara 100
ed 100
mot 100
andere 100
phải 100
##ं 100
Nu 100
hvor 100
время 100
ní 100
savo 100
aon 100
faire 100
ہو 100
blev 100
جس 100
##W 100
neeg 100
bod 100
uas 100
ob 100
მე 100
##fa 100
ਕੇ 100
hulle 100
zen 100
##nja 100
account 100
badan 100
thông 100
##ता 100
Trump 100
##che 100
made 100
utawa 100
استفاده 100
ہی 100
myös 100
tin 100
io 100
mid 100
ඇත 100
তার 100
которые 100
tias 100
business 100
tou 100
YouTube 100
##ies 100
##ӣ 100
##ში 100
##ле 100
##sı 100
##ল 100
gli 100
бу 100
sia 100
வேண்டும் 100
isi 100
##ite 100
chính 100
##ಗಳ 100
mere 100
כי 100
દ્વારા 100
если 100
##ийн 100
##po 100
féidir 100
jeho 100
##ам 100
ose 100
אם 100
buvo 100
Во 100
आप 100
Kwa 100
moja 100
izy 100
62 100
##zione 100
pẹlu 100
kell 100
yen 100
tapi 100
kg 100
teu 100
nhân 100
bar 100
Aku 100
đồng 100
bhí 100
чтобы 100
##ну 100
veya 100
Ali 100
ថា 100
Microsoft 100
અથવા 100
iyi 100
របស់ 100
dadi 100
cao 100
した 100
있는 100
neu 100
mundo 100
##ט 100
final 100
aos 100
été 100
##نا 100
રીતે 100
lugar 100
should 100
##ди 100
uso 100
které 100
##Y 100
haar 100
ក្នុង 100
طرح 100
verið 100
onze 100
ಒಂದು 100
vill 100
United 100
ake 100
kale 100
##ዎች 100
##ria 100
súa 100
دی 100
noma 100
Page 100
France 100
85 100
iya 100
life 100
керек 100
вам 100
होता 100
также 100
කර 100
して 100
##lı 100
mé 100
ਇੱਕ 100
mewn 100
University 100
барои 100
##su 100
News 100
geen 100
þar 100
ສຳ 100
##ан 100
mula 100
IP 100
fait 100
можете 100
gia 100
pelo 100
memiliki 100
አንድ 100
pun 100
আমি 100
##ийг 100
##ski 100
kunnen 100
##ion 100
մի 100
која 100
По 100
hans 100
##ները 100
Ua 100
##ná 100
where 100
amet 100
байдаг 100
tij 100
قرار 100
##ная 100
art 100
##X 100
ਹੀ 100
sul 100
Dir 100
Re 100
định 100
##гүй 100
James 100
ул 100
real 100
sinh 100
seda 100
ਕਰਨ 100
him 100
At 100
##ու 100
malo 100
##に 100
ew 100
మీరు 100
ugu 100
##ම 100
USB 100
nyob 100
##ം 100
එය 100
වන 100
ná 100
nje 100
fram 100
caso 100
στον 100
##ным 100
##ada 100
oss 100
ను 100
vam 100
kutoka 100
##യും 100
beberapa 100
##ने 100
نظر 100
##ic 100
చాలా 100
কৰি 100
Ako 100
Om 100
यो 100
после 100
##lari 100
ala 100
Indonesia 100
pat 100
այն 100
total 100
ଯେ 100
które 100
oswa 100
tao 100
yana 100
çox 100
tiu 100
Wir 100
##ע 100
goed 100
##ે 100
ସହିତ 100
contra 100
jadi 100
love 100
app 100
khách 100
much 100
##ыг 100
voi 100
gibi 100
আর 100
Ar 100
մասին 100
hơn 100
##my 100
mehr 100
При 100
klima 100
##nen 100
mata 100
Street 100
povas 100
##nd 100
وقت 100
##és 100
vara 100
wake 100
Full 100
##res 100
કરવામાં 100
page 100
هذه 100
##ని 100
face 100
find 100
dute 100
대한 100
right 100
үчүн 100
world 100
##ят 100
##は 100
problema 100
local 100
Home 100
##ton 100
том 100
ska 100
mới 100
could 100
така 100
kasadpan 100
Если 100
phẩm 100
அவர் 100
قبل 100
කිරීම 100
quando 100
##que 100
##ene 100
kini 100
##ס 100
කළ 100
##men 100
बाद 100
trường 100
iba 100
##ро 100
дээр 100
här 100
##ите 100
әйтелеше 100
great 100
alt 100
sila 100
kwaye 100
theo 100
jer 100
County 100
Art 100
रूप 100
Paris 100
using 100
##ст 100
moment 100
situs 100
bahwa 100
God 100
deur 100
mà 100
ul 100
high 100
ishte 100
sang 100
aya 100
gyfer 100
Jag 100
koj 100
کي 100
kakhulu 100
లేదా 100
હું 100
mange 100
perlu 100
ал 100
used 100
Mo 100
હતું 100
στα 100
##nak 100
mes 100
στις 100
such 100
уже 100
jej 100
কিন্তু 100
až 100
61 100
sistem 100
problem 100
cấp 100
έχει 100
fin 100
##lan 100
უნდა 100
##land 100
yeni 100
bay 100
бір 100
jos 100
sai 100
eftir 100
##ب 100
kimi 100
байсан 100
##ем 100
##غا 100
hình 100
מה 100
##ї 100
два 100
đi 100
lea 100
Paul 100
##서 100
1998 100
because 100
nova 100
kwamba 100
##ो 100
apie 100
Hindi 100
What 100
pred 100
hiyo 100
##ң 100
cách 100
##ció 100
кој 100
atas 100
besar 100
saj 100
##cu 100
International 100
կարող 100
tim 100
ise 100
mus 100
tempat 100
##der 100
беше 100
show 100
waa 100
তিনি 100
72 100
باید 100
May 100
कारण 100
تک 100
##ಗೆ 100
test 100
있다 100
support 100
##할 100
week 100
Las 100
waar 100
thu 100
kadar 100
##ere 100
þá 100
before 100
##gen 100
##ți 100
þess 100
##uri 100
harus 100
same 100
Een 100
##are 100
END 100
tā 100
tri 100
luwih 100
##nn 100
viên 100
tamin 100
asi 100
när 100
vo 100
гэта 100
prima 100
sử 100
mint 100
services 100
Inc 100
siis 100
Club 100
jika 100
même 100
já 100
Maria 100
และ 100
##ė 100
ll 100
Han 100
gali 100
болон 100
##ei 100
mara 100
##ł 100
sans 100
##ী 100
##ele 100
って 100
есть 100
mao 100
lista 100
##pi 100
še 100
daga 100
Það 100
line 100
##len 100
ime 100
koe 100
##ді 100
##다 100
kuna 100
##ean 100
اما 100
raibh 100
kar 100
ro 100
tentang 100
ambayo 100
daripada 100
Her 100
##cia 100
##rea 100
nella 100
##তে 100
nuo 100
hija 100
sein 100
ಅವರು 100
jsem 100
##ात 100
##ms 100
მაგრამ 100
bheith 100
##nta 100
kanyang 100
Michael 100
##と 100
ty 100
यांनी 100
##сь 100
iyong 100
##ой 100
ĝi 100
contact 100
kasebut 100
nii 100
##tt 100
rumah 100
metros 100
##ок 100
START 100
nwere 100
Οι 100
mir 100
байх 100
Washington 100
alles 100
##اً 100
tua 100
##het 100
##át 100
thế 100
ຂອງ 100
porque 100
dheweke 100
bija 100
##ista 100
tuaj 100
aga 100
tej 100
điều 100
West 100
હોય 100
Ce 100
##ੇ 100
disse 100
##고 100
Em 100
zaman 100
trí 100
görə 100
এক 100
bhith 100
vụ 100
होती 100
thực 100
team 100
Pinterest 100
तथा 100
last 100
skulle 100
dahil 100
muito 100
तक 100
membuat 100
کسی 100
thì 100
Samsung 100
ነገር 100
ہم 100
Mr 100
Air 100
tipo 100
സ് 100
કરવા 100
1990 100
Web 100
##دىن 100
leur 100
esse 100
dana 100
essere 100
години 100
Bir 100
ur 100
##ira 100
ако 100
они 100
selle 100
ਉਹ 100
##bu 100
этом 100
کرتے 100
Awọn 100
Als 100
ces 100
ఉంది 100
daar 100
ele 100
pela 100
ທີ່ 100
իր 100
ពី 100
shi 100
prin 100
tina 100
mg 100
його 100
##ې 100
##лы 100
masih 100
आज 100
yw 100
minangka 100
lori 100
него 100
momento 100
очень 100
Ich 100
کہا 100
треба 100
Van 100
temps 100
elle 100
##кі 100
iku 100
##स 100
store 100
being 100
epi 100
yoki 100
menggunakan 100
Ñp 100
thời 100
House 100
через 100
करते 100
helt 100
##nek 100
нэг 100
mesmo 100
##지 100
који 100
быть 100
この 100
só 100
gach 100
لیکن 100
English 100
Afrika 100
soti 100
também 100
વધુ 100
##য় 100
csak 100
kata 100
start 100
cas 100
kerak 100
##ului 100
します 100
Nahimutang 100
Plus 100
kudu 100
bona 100
peut 100
Op 100
##ura 100
diri 100
gün 100
notre 100
हा 100
wo 100
deg 100
આવે 100
gran 100
હતા 100
ад 100
čo 100
##ና 100
କରିବା 100
airson 100
huma 100
محمد 100
##ет 100
कुछ 100
પરંતુ 100
London 100
##ado 100
थियो 100
taun 100
isa 100
negara 100
##های 100
gebruik 100
##ж 100
nalika 100
कहा 100
მისი 100
##тай 100
##ную 100
مورد 100
form 100
czy 100
vas 100
wọn 100
California 100
może 100
ntchito 100
##son 100
##ಲ್ಲಿ 100
रहे 100
Azərbaycan 100
car 100
लेकिन 100
wê 100
dolor 100
yan 100
suka 100
hii 100
treba 100
गर्ने 100
look 100
##ک 100
Black 100
##ા 100
શકે 100
તેના 100
tego 100
yung 100
Center 100
වේ 100
##ર 100
très 100
nên 100
##kin 100
uno 100
ville 100
##ona 100
ஆனால் 100
Ho 100
jih 100
dhéanamh 100
##ud 100
Pour 100
vera 100
Super 100
दिया 100
には 100
Ba 100
name 100
##ida 100
merupakan 100
##ца 100
66 100
ਕਰ 100
ndipo 100
kia 100
IV 100
##ía 100
ግን 100
lakini 100
kien 100
այդ 100
euro 100
nye 100
trình 100
tagata 100
შემდეგ 100
Post 100
##합니다 100
##ata 100
cum 100
går 100
zuen 100
tyre 100
その 100
Вы 100
file 100
éta 100
Top 100
kali 100
##க்கு 100
tid 100
type 100
##тар 100
эле 100
над 100
tuo 100
##નું 100
##них 100
fer 100
ipsum 100
hành 100
##யை 100
latou 100
tatou 100
دیگر 100
There 100
##gu 100
मात्र 100
1997 100
Ltd 100
þegar 100
الى 100
suas 100
##lah 100
බව 100
mogu 100
Как 100
cael 100
cơ 100
##keun 100
можна 100
estado 100
کنند 100
##tes 100
##му 100
Ti 100
##nti 100
نیز 100
bola 100
wel 100
##san 100
более 100
kuin 100
software 100
რაც 100
mình 100
lý 100
ibabaw 100
elit 100
پیش 100
personal 100
በጣም 100
ئۈچۈن 100
ab 100
qua 100
समय 100
rin 100
63 100
68 100
##ෙන් 100
అని 100
Thomas 100
نام 100
tat 100
kazi 100
##ಕ್ಕೆ 100
Ke 100
clic 100
वह 100
habagatan 100
oor 100
##ләр 100
këtë 100
share 100
איך 100
ninu 100
ber 100
CD 100
##دا 100
down 100
Saya 100
##ner 100
IT 100
wan 100
ulohan 100
Nie 100
այս 100
those 100
ക്ക് 100
##ше 100
αυτό 100
hamwe 100
रहा 100
روز 100
finns 100
алып 100
##ও 100
Bank 100
tabi 100
Robert 100
असे 100
pēc 100
ին 100
просто 100
ໃນ 100
ჩვენ 100
ohun 100
آهي 100
weer 100
edhe 100
ይህ 100
##ës 100
product 100
još 100
leo 100
Website 100
Ако 100
към 100
##ua 100
بين 100
##્સ 100
మీ 100
زیادہ 100
##्स 100
må 100
National 100
##aj 100
amihanan 100
både 100
aussi 100
تر 100
bilang 100
dela 100
##ën 100
wala 100
pak 100
дә 100
හෝ 100
live 100
bagay 100
order 100
위해 100
moi 100
جب 100
kila 100
water 100
अधिक 100
бұл 100
bli 100
թե 100
god 100
nhận 100
Ya 100
ol 100
American 100
себе 100
aber 100
Barcelona 100
כדי 100
##து 100
máy 100
masalah 100
##မှာ 100
ਗਿਆ 100
esti 100
hos 100
කරන 100
ii 100
##sh 100
Në 100
##ling 100
či 100
USD 100
rất 100
##ం 100
lượng 100
But 100
Group 100
##hu 100
Italia 100
کریں 100
partir 100
##ન 100
programa 100
அல்லது 100
کرده 100
ktorý 100
ban 100
Бұл 100
ти 100
due 100
היה 100
بہت 100
ہوئے 100
1996 100
kòm 100
또는 100
##ş 100
немесе 100
ಆದರೆ 100
##ica 100
مەن 100
अब 100
67 100
Mga 100
Malaysia 100
##лары 100
Vous 100
saja 100
##ци 100
etter 100
yên 100
ਉਸ 100
produk 100
diese 100
By 100
rud 100
Dia 100
behar 100
area 100
koma 100
sí 100
vê 100
abantu 100
ကို 100
School 100
Santa 100
وجود 100
##ləri 100
bra 100
ਉਨ੍ਹਾਂ 100
##ית 100
صورت 100
ਕੀਤਾ 100
chúng 100
##ло 100
iwe 100
available 100
##th 100
Ég 100
бы 100
Saint 100
sendiri 100
giiniton 100
doen 100
Tag 100
George 100
svo 100
ήταν 100
vid 100
եմ 100
alta 100
faoi 100
tous 100
αλλά 100
vin 100
той 100
nghiệp 100
##ин 100
person 100
##tik 100
Pa 100
land 100
Yn 100
1995 100
##ზე 100
cả 100
put 100
##це 100
South 100
State 100
lè 100
ನೀವು 100
##υ 100
بن 100
waktu 100
pang 100
##tra 100
केली 100
##ف 100
dva 100
Да 100
dagat 100
bere 100
Alle 100
tetapi 100
##nom 100
##න් 100
Play 100
కు 100
##б 100
Star 100
Martin 100
काही 100
importante 100
bit 100
samt 100
الذي 100
gị 100
##dy 100
##les 100
think 100
ទៅ 100
aktar 100
تم 100
ಹಾಗೂ 100
lava 100
empresa 100
xuất 100
kodwa 100
each 100
ʻO 100
bare 100
tio 100
જો 100
tylko 100
dann 100
important 100
hij 100
own 100
tena 100
केले 100
phát 100
cùng 100
bus 100
around 100
kote 100
sun 100
מיט 100
Daten 100
##ही 100
ಇದು 100
ໄດ້ 100
ہوں 100
got 100
selv 100
Og 100
siad 100
700 100
năng 100
կամ 100
lahat 100
##ire 100
អ្នក 100
##mba 100
Mp3 100
दिन 100
chất 100
##лық 100
जा 100
ilk 100
será 100
September 100
##기 100
##ри 100
Kui 100
ಅಥವಾ 100
##ert 100
##ima 100
##ón 100
Mit 100
##ão 100
ලෙස 100
tanto 100
##sk 100
پاکستان 100
engem 100
mahi 100
þú 100
නම් 100
##ting 100
really 100
serta 100
Real 100
hyn 100
kiuj 100
ନାହିଁ 100
sei 100
הם 100
##ד 100
չի 100
אבל 100
side 100
ਸਿੰਘ 100
mida 100
sidlakan 100
яго 100
কি 100
ml 100
Ek 100
##ay 100
todas 100
anti 100
wannan 100
tanpa 100
dwe 100
##ع 100
##お 100
waxaa 100
antes 100
sib 100
##ઓ 100
azt 100
nag 100
##টি 100
yoo 100
tele 100
onder 100
Amazon 100
menos 100
##mento 100
plej 100
public 100
она 100
דעם 100
ih 100
##iga 100
rata 100
mungkin 100
án 100
jis 100
წლის 100
##ile 100
##ah 100
point 100
På 100
შეიძლება 100
cần 100
تھے 100
allt 100
days 100
##zen 100
mong 100
##nes 100
##ии 100
تمام 100
আপনার 100
##yan 100
kết 100
album 100
Peter 100
98 100
##wi 100
enn 100
थी 100
tie 100
##ер 100
aad 100
μου 100
hau 100
##ant 100
##cha 100
##ц 100
##dor 100
саны 100
fod 100
antara 100
while 100
novo 100
деген 100
watu 100
шумо 100
##కి 100
1994 100
थे 100
##ја 100
puede 100
jan 100
जाता 100
گا 100
flere 100
vita 100
oni 100
bằng 100
dieser 100
ọrụ 100
Ihre 100
list 100
една 100
dá 100
até 100
kunt 100
##ээ 100
પછી 100
##lig 100
taip 100
În 100
kunne 100
dum 100
69 100
iā 100
պետք 100
##で 100
##ika 100
vs 100
##ist 100
Dette 100
کم 100
sta 100
আপনি 100
Songs 100
sme 100
hou 100
##ě 100
والے 100
laga 100
material 100
ਤਾਂ 100
wenn 100
eins 100
року 100
който 100
every 100
tikai 100
об 100
Grand 100
##ా 100
date 100
huet 100
gur 100
पण 100
nama 100
chur 100
līdz 100
xe 100
kēia 100
oko 100
شرکت 100
უფრო 100
hu 100
hvis 100
##cie 100
pral 100
##ndi 100
நீங்கள் 100
##ните 100
They 100
Это 100
آنها 100
##by 100
نامه 100
ginn 100
##யில் 100
болады 100
경우 100
vom 100
ilang 100
عنوان 100
Бу 100
##લ 100
How 100
meta 100
setiap 100
বি 100
onye 100
##dır 100
Ji 100
##sha 100
pole 100
onde 100
waxay 100
Your 100
stock 100
kif 100
##oa 100
saa 100
88 100
khác 100
maken 100
Kami 100
urang 100
unu 100
bilen 100
##თვის 100
gyda 100
день 100
jotka 100
три 100
76 100
كل 100
seorang 100
kuring 100
deux 100
article 100
##rin 100
news 100
case 100
##iya 100
chuid 100
Дар 100
اپنی 100
tla 100
##tor 100
ngo 100
sito 100
##बाट 100
انجام 100
მათ 100
iri 100
##Z 100
också 100
##ത് 100
muy 100
duhet 100
tuig 100
##ck 100
binne 100
किंवा 100
ane 100
Мы 100
##тэй 100
1992 100
EUR 100
Jan 100
##ela 100
kam 100
kamu 100
kat 100
must 100
tinggi 100
##ць 100
پایان 100
där 100
Med 100
zona 100
בין 100
pai 100
ఉన్న 100
který 100
More 100
который 100
ljudi 100
ол 100
code 100
size 100
##лык 100
##් 100
حال 100
##ଙ୍କ 100
too 100
Um 100
##ची 100
North 100
नै 100
sér 100
give 100
##യുടെ 100
якія 100
##лі 100
still 100
content 100
Red 100
meu 100
કોઈ 100
arba 100
edir 100
##cht 100
Don 100
ਆਪਣੇ 100
hais 100
తన 100
этого 100
mest 100
Madrid 100
tawo 100
đang 100
71 100
kanssa 100
olla 100
77 100
лет 100
bukan 100
כמו 100
autres 100
бойынша 100
heb 100
wil 100
##line 100
thiết 100
tur 100
mee 100
extra 100
baş 100
मा 100
över 100
normal 100
ev 100
bộ 100
74 100
Fotos 100
##nik 100
fara 100
کچھ 100
মধ্যে 100
tutti 100
milimetro 100
ans 100
раз 100
terus 100
dwar 100
pase 100
##chi 100
godina 100
día 100
##ların 100
##min 100
##ν 100
hei 100
##ent 100
##ně 100
تھی 100
##ска 100
eget 100
artikel 100
telefon 100
bol 100
nào 100
##ang 100
ئۇنىڭ 100
sehr 100
Jesus 100
მას 100
##נו 100
##யும் 100
із 100
##jiet 100
##ás 100
już 100
سره 100
ono 100
Resim 100
lên 100
78 100
пред 100
Road 100
mó 100
આવી 100
بی 100
نمی 100
độ 100
##yn 100
number 100
baina 100
Of 100
deres 100
már 100
még 100
##ové 100
anni 100
##ச் 100
##म 100
estar 100
##ත් 100
tiegħu 100
##లను 100
control 100
когда 100
bảo 100
##сть 100
ulan 100
wani 100
Mac 100
бул 100
##val 100
##cí 100
być 100
hafi 100
был 100
ਇਕ 100
96 100
nanging 100
būti 100
Como 100
##00 100
##ња 100
peb 100
Hvis 100
което 100
##ار 100
Tu 100
nrog 100
Mai 100
vám 100
bikin 100
##ା 100
điểm 100
73 100
hivyo 100
lat 100
모든 100
mil 100
izango 100
##aren 100
करता 100
##vu 100
motor 100
UK 100
pia 100
possible 100
tư 100
kiam 100
عمل 100
andra 100
Movie 100
vum 100
әйтелешен 100
toàn 100
Ал 100
ud 100
ankaŭ 100
cyane 100
William 100
sarta 100
več 100
však 100
byen 100
pola 100
siab 100
marketing 100
نہ 100
##એ 100
hiệu 100
##ée 100
180 100
mun 100
1991 100
hon 100
lòt 100
Beach 100
between 100
Untuk 100
என 100
بولۇپ 100
family 100
Jean 100
##tar 100
Go 100
Ben 100
gwo 100
જ્યારે 100
Fi 100
matag 100
hiji 100
کوئی 100
##dh 100
unter 100
loro 100
আছে 100
##ਆਂ 100
##ק 100
##चा 100
##ор 100
voru 100
##lin 100
months 100
האט 100
##ring 100
välja 100
##ന് 100
##rum 100
##rik 100
##inn 100
Please 100
туралы 100
##ق 100
kwambiri 100
다른 100
kuba 100
دیا 100
Ini 100
dir 100
там 100
##ју 100
wéi 100
##ко 100
Sed 100
penting 100
Dat 100
ntau 100
High 100
էլ 100
каб 100
fit 100
far 100
##syon 100
შესახებ 100
Media 100
tự 100
twee 100
##ರು 100
simple 100
مختلف 100
##J 100
##ম 100
đây 100
मी 100
##ಿ 100
1993 100
poate 100
melakukan 100
kua 100
##ක 100
##دىكى 100
modo 100
When 100
Music 100
ligger 100
nhưng 100
них 100
हुए 100
##ова 100
##ах 100
કરો 100
nila 100
##ния 100
সেই 100
turi 100
sub 100
Bi 100
úr 100
আমার 100
gi 100
také 100
ასევე 100
でも 100
Od 100
Click 100
experience 100
eerste 100
bardzo 100
logo 100
ως 100
86 100
##nim 100
විය 100
##گە 100
cầu 100
different 100
next 100
როდესაც 100
tốt 100
عام 100
harga 100
##dd 100
##č 100
කිරීමට 100
Pero 100
idea 100
##वर 100
inay 100
##rat 100
где 100
hội 100
ity 100
dus 100
នឹង 100
щоб 100
TripAdvisor 100
dara 100
##ala 100
##sko 100
mycket 100
fare 100
ok 100
naa 100
ketika 100
еще 100
tika 100
oan 100
gang 100
datos 100
dati 100
110 100
##चे 100
kabeh 100
##ara 100
ru 100
Mark 100
biết 100
loại 100
DVD 100
mặt 100
hoặc 100
mijn 100
Hà 100
bili 100
کشور 100
##mme 100
##입니다 100
##tus 100
##ret 100
información 100
yer 100
play 100
kerana 100
nr 100
zbog 100
første 100
going 100
जब 100
aig 100
ឲ្យ 100
võib 100
##ari 100
company 100
quis 100
##ige 100
tare 100
bike 100
##ger 100
през 100
82 100
window 100
84 100
មួយ 100
oge 100
ena 100
hər 100
phòng 100
años 100
noi 100
ntawv 100
اند 100
Lake 100
##ರ 100
yg 100
ее 100
multe 100
svoj 100
xi 100
banget 100
sebuah 100
þeir 100
বাবে 100
With 100
ratou 100
មិន 100
ae 100
digital 100
rasa 100
##ия 100
biri 100
arasında 100
yako 100
PM 100
tạo 100
hän 100
mare 100
open 100
hand 100
была 100
kuid 100
Read 100
теле 100
உள்ள 100
сам 100
lot 100
##ét 100
पहले 100
Big 100
gian 100
ყველა 100
##ih 100
dunia 100
као 100
92 100
book 100
Brasil 100
##ین 100
پس 100
##bar 100
dai 100
Day 100
nuair 100
based 100
Live 100
Business 100
azy 100
polo 100
други 100
бөгөөд 100
féin 100
81 100
does 100
один 100
करण्यात 100
metu 100
ĉe 100
غير 100
##인 100
بین 100
điện 100
nakon 100
kde 100
który 100
России 100
vie 100
menm 100
grupo 100
mon 100
jeden 100
##ು 100
wax 100
##ných 100
97 100
жылы 100
both 100
##ras 100
روی 100
tarafından 100
będzie 100
nisi 100
including 100
وی 100
##nə 100
school 100
бер 100
છો 100
without 100
akong 100
mens 100
گے 100
opp 100
Ak 100
след 100
чем 100
हम 100
өз 100
##ната 100
bản 100
Galaxy 100
Our 100
видео 100
tác 100
##ι 100
dobro 100
hệ 100
##해 100
زندگی 100
yam 100
Islam 100
Deze 100
##ट 100
proti 100
1980 100
شامل 100
Jika 100
чи 100
трябва 100
##nych 100
سی 100
zich 100
ហើយ 100
Ana 100
Videoları 100
NAME 100
već 100
King 100
എന്ന 100
##uje 100
sami 100
அந்த 100
MP3 100
करें 100
പി 100
Diese 100
болып 100
lalu 100
kod 100
استعمال 100
pot 100
گفت 100
##ň 100
89 100
dah 100
jūs 100
apik 100
ذلك 100
ավելի 100
##ҳо 100
##oni 100
нам 100
ඔබ 100
sous 100
mba 100
##ate 100
gibt 100
waxa 100
##న 100
79 100
manawa 100
kir 100
tres 100
فى 100
better 100
པའི 100
gå 100
olduğu 100
vores 100
##nan 100
ħafna 100
##jú 100
ante 100
tiếp 100
אחד 100
aquest 100
aho 100
syn 100
##ар 100
ár 100
things 100
биде 100
##ել 100
kahaboga 100
83 100
Design 100
Jak 100
mempunyai 100
buat 100
##yon 100
91 100
طرف 100
þetta 100
چه 100
Mwen 100
Bay 100
онлайн 100
आपण 100
##one 100
outros 100
ենք 100
style 100
ngā 100
unserer 100
##мі 100
##ami 100
google 100
ոչ 100
dun 100
muda 100
meget 100
før 100
Hy 100
##ian 100
він 100
menyang 100
godt 100
trước 100
द्वारा 100
kilometro 100
App 100
সঙ্গে 100
मैं 100
དང 100
lite 100
ద్వారా 100
eich 100
tế 100
tek 100
sheegay 100
તેની 100
vain 100
га 100
Ihnen 100
lgan 100
benar 100
vì 100
version 100
##ий 100
kinh 100
##iu 100
SA 100
کرنا 100
main 100
anpil 100
калі 100
كان 100
году 100
olduğunu 100
මම 100
କରିବାକୁ 100
kinainitan 100
kinabugnawan 100
dok 100
##ker 100
supaya 100
##ais 100
сүзләр 100
እንደ 100
##od 100
ກຳ 100
सकता 100
tháng 100
havas 100
kuv 100
##ाच्या 100
ਕੀਤੀ 100
America 100
League 100
##ті 100
cewa 100
System 100
##ez 100
##ना 100
##ati 100
Une 100
Nous 100
олон 100
pie 100
ils 100
##jos 100
##zu 100
serie 100
##тер 100
météo 100
poder 100
emas 100
##си 100
hierdie 100
kế 100
என்ற 100
також 100
##сти 100
standard 100
mobil 100
##ções 100
##لار 100
aina 100
##ٹ 100
ናቸው 100
Công 100
vu 100
Бул 100
đường 100
Smith 100
están 100
##нда 100
fast 100
Ein 100
hiki 100
गई 100
keď 100
tankou 100
##ली 100
kune 100
pati 100
stor 100
iOS 100
##tis 100
მხოლოდ 100
PDF 100
ingin 100
##된 100
##ں 100
original 100
primer 100
##ад 100
কৰা 100
kanë 100
мин 100
では 100
України 100
kala 100
93 100
صرف 100
##heid 100
емес 100
כך 100
##സ് 100
який 100
ମଧ୍ୟ 100
Data 100
सकते 100
अन्य 100
##sz 100
केला 100
մեջ 100
isə 100
langsung 100
bank 100
đối 100
আমাদের 100
można 100
general 100
తో 100
Com 100
बहुत 100
Im 100
շատ 100
87 100
ରେ 100
parti 100
боюнча 100
нужно 100
ega 100
noho 100
raha 100
##nis 100
siz 100
رہے 100
##ා 100
kon 100
qed 100
ياكى 100
check 100
así 100
πρέπει 100
hún 100
alam 100
##fi 100
##ש 100
manje 100
otu 100
হয়েছে 100
सरकार 100
tiene 100
тому 100
mobile 100
94 100
tiegħek 100
##ून 100
kerja 100
##vé 100
Mais 100
sehingga 100
##ության 100
##uar 100
अपनी 100
cukup 100
few 100
quality 100
mali 100
କିନ୍ତୁ 100
bem 100
между 100
Roma 100
##ද 100
tenei 100
कोई 100
always 100
վրա 100
##uk 100
##ās 100
является 100
mora 100
##jes 100
##களில் 100
semana 100
sekä 100
##cy 100
##dən 100
רק 100
dugu 100
Ir 100
atë 100
तीन 100
products 100
vår 100
mind 100
dân 100
Tom 100
biz 100
ଯାହା 100
дип 100
never 100
ਜੋ 100
##자 100
##iti 100
কথা 100
##تا 100
milli 100
عليه 100
fine 100
gun 100
##も 100
Esta 100
także 100
##į 100
duine 100
तरह 100
##ін 100
किसी 100
fazer 100
misy 100
##mer 100
##တွေ 100
කරන්න 100
egiten 100
##ಸ್ 100
White 100
natural 100
ден 100
ཀྱི 100
##қа 100
old 100
##jte 100
Τα 100
ant 100
##ವು 100
هستند 100
זיך 100
रही 100
להיות 100
state 100
tâm 100
FC 100
tính 100
করেন 100
pl 100
kamar 100
did 100
mwa 100
##ј 100
às 100
##asi 100
chức 100
nieuwe 100
lê 100
jen 100
многу 100
était 100
noen 100
Як 100
Jo 100
თქვენ 100
कम 100
##mine 100
say 100
افراد 100
даже 100
kanilang 100
Quốc 100
dh 100
Wi 100
siden 100
##чи 100
Mail 100
gbogbo 100
song 100
iu 100
##sel 100
Tak 100
##යි 100
danych 100
ziren 100
bütün 100
dili 100
##ER 100
Trung 100
##ון 100
plis 100
##zy 100
comment 100
nito 100
##қ 100
তাদের 100
მან 100
acest 100
kwi 100
sera 100
##ך 100
tun 100
لم 100
Festival 100
kasi 100
quả 100
##ಯನ್ನು 100
olyan 100
anya 100
padha 100
خلال 100
עד 100
little 100
কোনো 100
minden 100
فقط 100
دي 100
کام 100
datt 100
Mas 100
Daniel 100
Lo 100
##nar 100
##ი 100
عدد 100
gore 100
ہونے 100
yuta 100
ଉପରେ 100
جا 100
##zzjoni 100
която 100
menu 100
mia 100
ће 100
##ron 100
music 100
URL 100
могут 100
Lee 100
Israel 100
koa 100
cui 100
při 100
##мо 100
რომლებიც 100
થાય 100
mung 100
った 100
##யின் 100
toda 100
sowie 100
##ник 100
henteu 100
image 100
##tta 100
क्या 100
##ké 100
سب 100
іх 100
Uma 100
Best 100
Island 100
sitt 100
despre 100
1989 100
lag 100
mtu 100
वाले 100
##nju 100
immer 100
uri 100
mafai 100
پی 100
उनले 100
તેને 100
również 100
##tur 100
നല് 100
Canada 100
##ਰ 100
bile 100
ingen 100
Now 100
len 100
వారు 100
אז 100
hur 100
lama 100
sport 100
##ći 100
sê 100
bán 100
én 100
fotografie 100
פֿאַר 100
##ક 100
сите 100
historia 100
April 100
Türkiye 100
found 100
हुने 100
thị 100
jwenn 100
address 100
ಮೇಲೆ 100
LA 100
##ena 100
That 100
tahu 100
##inen 100
همه 100
agar 100
también 100
அவர்கள் 100
Ing 100
dike 100
નહીં 100
sampai 100
seva 100
Love 100
przy 100
होने 100
text 100
sida 100
hali 100
wieder 100
če 100
phần 100
dine 100
##kom 100
tagħhom 100
அது 100
##ха 100
##ವಾಗಿ 100
ఆమె 100
byť 100
اسے 100
ერთი 100
Wat 100
movie 100
##van 100
##ey 100
wij 100
##ls 100
##ọ 100
μπορεί 100
sure 100
Latvijas 100
Så 100
κατά 100
isso 100
during 100
tetahi 100
##las 100
jalan 100
radio 100
Team 100
##nce 100
lei 100
lá 100
pernah 100
Har 100
být 100
gada 100
tino 100
sim 100
##ги 100
ond 100
bahan 100
giúp 100
mudah 100
оны 100
ನಿಮ್ಮ 100
##দের 100
način 100
nın 100
mini 100
questa 100
##се 100
bağlı 100
nich 100
hoki 100
##ide 100
गरेका 100
melalui 100
кога 100
something 100
##rd 100
yêu 100
luar 100
ch 100
three 100
nás 100
ainda 100
iar 100
##երի 100
ನಾನು 100
ឆ្នាំ 100
mano 100
Game 100
sulla 100
भारत 100
status 100
ef 100
Kim 100
Film 100
hûn 100
okanye 100
arte 100
няма 100
ಅವರ 100
dùng 100
won 100
130 100
دا 100
trang 100
lawv 100
Euro 100
waren 100
পৰা 100
lungsod 100
ដោយ 100
сте 100
##ج 100
giới 100
עס 100
ପରେ 100
##ային 100
रहेको 100
##use 100
كه 100
যদি 100
##ами 100
##ët 100
две 100
##ә 100
ganz 100
anh 100
##ня 100
##ություն 100
toho 100
read 100
basa 100
নিয়ে 100
Green 100
barn 100
nay 100
nada 100
करना 100
##ча 100
degli 100
##је 100
##ನ 100
විට 100
##ும் 100
Jos 100
nói 100
đẹp 100
today 100
##cija 100
txog 100
hadde 100
ilay 100
##پ 100
بات 100
dịch 100
ebe 100
lill 100
jenis 100
έχουν 100
घर 100
Song 100
##िंग 100
nome 100
##чы 100
centro 100
keine 100
##ער 100
ידי 100
эсвэл 100
gì 100
##ės 100
tag 100
##ғы 100
Wenn 100
##ക്ക് 100
##α 100
थिए 100
bao 100
موضوع 100
digunakan 100
##ган 100
memberikan 100
गए 100
tamén 100
país 100
hingga 100
tip 100
ہوا 100
##ු 100
bersama 100
Informationen 100
Met 100
Klik 100
melihat 100
provide 100
хэрэгтэй 100
utama 100
fai 100
##ü 100
wees 100
oedd 100
алар 100
رقم 100
giải 100
కానీ 100
niin 100
هي 100
ત્યારે 100
lamang 100
Tai 100
Але 100
##قا 100
cap 100
tiasa 100
##ali 100
Charles 100
mang 100
##ien 100
než 100
kei 100
werd 100
då 100
160 100
##ley 100
än 100
আমরা 100
##ő 100
করার 100
Europe 100
##taj 100
табылган 100
900 100
તેઓ 100
ore 100
##か 100
##sin 100
après 100
även 100
kanye 100
eines 100
chọn 100
change 100
##ber 100
##pu 100
##ًا 100
leta 100
nec 100
masu 100
##ей 100
##aa 100
##य 100
ये 100
ער 100
மேலும் 100
##yê 100
ăn 100
vị 100
m2 100
хүн 100
ਕਿਹਾ 100
یکی 100
deve 100
որը 100
Son 100
AS 100
માં 100
cosa 100
##дың 100
സി 100
しい 100
duwe 100
##ਨ 100
þeim 100
MB 100
##ым 100
##ende 100
людей 100
wanda 100
Ai 100
##nej 100
omwe 100
duen 100
නිසා 100
Ia 100
parë 100
##tia 100
sale 100
നിന്ന് 100
vad 100
tv 100
мне 100
خواهد 100
Som 100
карда 100
##té 100
என் 100
көп 100
##нын 100
हजार 100
persona 100
tips 100
dagen 100
##nza 100
सभी 100
Hier 100
Min 100
त्या 100
сайт 100
offer 100
##ša 100
##É 100
büyük 100
ảnh 100
click 100
##ani 100
ander 100
Australia 100
ነበር 100
ତାଙ୍କ 100
##nog 100
Radio 100
តែ 100
dening 100
fue 100
തന്നെ 100
പറഞ്ഞു 100
##aan 100
dom 100
chủ 100
ajo 100
cyangwa 100
pertama 100
algo 100
մեր 100
##ē 100
jedan 100
##పై 100
avy 100
Max 100
##ova 100
akeh 100
sina 100
Hill 100
болуп 100
babagan 100
350 100
Postal 100
##etan 100
please 100
όπως 100
thức 100
ён 100
process 100
##ב 100
kekahi 100
doanh 100
dalla 100
global 100
със 100
140 100
chak 100
color 100
##ई 100
dating 100
##ա 100
आपल्या 100
Tapi 100
laikā 100
cele 100
Casino 100
troch 100
সাথে 100
شهر 100
Richard 100
Nan 100
شروع 100
kitu 100
ən 100
います 100
против 100
##kas 100
detta 100
avoir 100
##tzen 100
öz 100
иде 100
πιο 100
було 100
Ale 100
Am 100
đại 100
Dalam 100
କରି 100
ці 100
dapit 100
##дә 100
enim 100
1970 100
cel 100
daoine 100
ਹੋਰ 100
modern 100
වූ 100
##wy 100
ami 100
iṣẹ 100
දී 100
इसके 100
schon 100
ਜਾਂ 100
Texas 100
báo 100
pasi 100
అతను 100
бик 100
byl 100
بولغان 100
##vad 100
ביותר 100
vse 100
##met 100
دهد 100
تي 100
##եր 100
##nou 100
food 100
эзләп 100
##num 100
sababu 100
##zwa 100
cuando 100
siv 100
tình 100
جدید 100
ଭାବରେ 100
фото 100
حاصل 100
jums 100
amach 100
iş 100
થઈ 100
sine 100
SMS 100
##ili 100
Ní 100
##ris 100
Так 100
maak 100
Ki 100
##த்தை 100
##ç 100
another 100
முதல் 100
sydd 100
ÑÄ 100
naše 100
##pen 100
##una 100
Maar 100
vegna 100
bħala 100
lớn 100
horas 100
ман 100
##ል 100
नेपाल 100
možete 100
##ier 100
##са 100
Apa 100
داشته 100
работы 100
teh 100
##če 100
موقع 100
peu 100
##mus 100
##ג 100
##ु 100
##ので 100
Мен 100
##لىرى 100
jego 100
travay 100
سایت 100
কৰে 100
within 100
bû 100
##ville 100
vetëm 100
finden 100
నా 100
Anna 100
ઉપયોગ 100
font 100
आता 100
رو 100
bheil 100
ditu 100
##tte 100
##ගේ 100
##tti 100
Here 100
werk 100
##ि 100
zuwa 100
##ši 100
trị 100
адам 100
esa 100
lus 100
utan 100
دست 100
ווי 100
nego 100
savu 100
tana 100
noe 100
meter 100
##jas 100
хамгийн 100
бъде 100
dak 100
તરીકે 100
বলে 100
tawm 100
##че 100
bha 100
nueva 100
##ák 100
##iz 100
##og 100
massa 100
ທ່ານ 100
sebelum 100
chini 100
##per 100
##א 100
##rar 100
haghaidh 100
Não 100
ती 100
väga 100
eto 100
Нәтиҗәләр 100
কিছু 100
amely 100
гэсэн 100
forum 100
tiền 100
##ದಲ್ಲಿ 100
під 100
##ୁ 100
access 100
##є 100
ഇത് 100
mirë 100
म्हणून 100
ның 100
##ore 100
rok 100
hard 100
hasta 100
ukuze 100
اليوم 100
निर्माण 100
##ڭ 100
tài 100
##ء 100
છું 100
Auto 100
ditt 100
Он 100
##zioni 100
small 100
##ू 100
maith 100
কোন 100
всех 100
sekolah 100
tussen 100
आवश्यक 100
kr 100
თქვენი 100
нет 100
kapa 100
prema 100
##let 100
##дар 100
##য় 100
பல 100
##मध्ये 100
год 100
xav 100
ปี 100
পারে 100
ਪਰ 100
##ser 100
senza 100
ಬಗ್ಗೆ 100
kalau 100
però 100
NA 100
pamoja 100
буде 100
ямар 100
##् 100
où 100
ÑÄÑ 100
वे 100
thường 100
всички 100
stato 100
този 100
נישט 100
ese 100
since 100
facebook 100
##ons 100
Все 100
Cov 100
memang 100
તમારા 100
##tà 100
proses 100
برنامه 100
html 100
πολύ 100
##ပြီး 100
##ства 100
disa 100
Asia 100
která 100
जानकारी 100
Office 100
sena 100
ترین 100
رہا 100
consectetur 100
room 100
##ಿಂದ 100
nám 100
ме 100
College 100
hver 100
тулд 100
lona 100
##യാണ് 100
kirin 100
##ೆ 100
место 100
Ku 100
##න 100
Mary 100
call 100
לי 100
##adh 100
body 100
format 100
##ту 100
Su 100
ត្រូវ 100
samme 100
##ല് 100
anyar 100
کرتا 100
##ство 100
##chen 100
einfach 100
Open 100
କରେ 100
হয় 100
nagu 100
hati 100
kull 100
حکومت 100
terhadap 100
loʻo 100
##적 100
yin 100
kbps 100
mejor 100
125 100
Alexa 100
khoom 100
runga 100
metro 100
eme 100
thấy 100
wanita 100
##larda 100
új 100
biasa 100
akkor 100
hà 100
##ться 100
looking 100
koju 100
familia 100
lle 100
PubMed 100
##ன் 100
bagian 100
perusahaan 100
unsere 100
Kung 100
labai 100
tham 100
##owe 100
triển 100
soos 100
baie 100
lena 100
אתה 100
jsme 100
hom 100
שלך 100
txoj 100
себя 100
Din 100
zi 100
hade 100
लोगों 100
ଅଧିକ 100
huo 100
##ි 100
gambar 100
Če 100
Hapit 100
يمكن 100
taimi 100
उन्होंने 100
##कर 100
նաեւ 100
осы 100
##ną 100
##rio 100
оның 100
gör 100
sala 100
##ò 100
##ին 100
Que 100
kufanya 100
boli 100
nema 100
encore 100
всего 100
verður 100
پہلے 100
prej 100
aquí 100
##ական 100
ისინი 100
número 100
again 100
##ys 100
##ף 100
##ði 100
##AN 100
photo 100
nalukop 100
##fu 100
##ila 100
тут 100
било 100
WordPress 100
power 100
kula 100
пра 100
mwaka 100
ola 100
liyane 100
nahi 100
##ஸ் 100
##ale 100
аны 100
સુધી 100
նա 100
dio 100
dentro 100
នោះ 100
iji 100
iPad 100
mult 100
trebuie 100
toga 100
كما 100
bl 100
சில 100
ನಾವು 100
ನಲ್ಲಿ 100
staat 100
sii 100
zomwe 100
avea 100
Ad 100
East 100
##வும் 100
might 100
lil 100
අපි 100
അത് 100
Land 100
onun 100
Tablet 100
siku 100
Central 100
đề 100
pilihan 100
kus 100
tüm 100
ide 100
bawah 100
##ына 100
kuni 100
vás 100
méi 100
ariko 100
DC 100
katoa 100
داده 100
많은 100
اب 100
kira 100
##ல் 100
قیمت 100
אל 100
habe 100
apo 100
სხვა 100
suna 100
Sport 100
कई 100
ہر 100
אי 100
kapena 100
##hin 100
able 100
dr 100
ලබා 100
страна 100
##hen 100
בכל 100
kwadrado 100
بازی 100
group 100
Pada 100
Blog 100
yén 100
##୍ 100
Македонија 100
Blue 100
sini 100
αυτή 100
review 100
##ার 100
Nội 100
vitae 100
pessoas 100
gba 100
##ور 100
موجود 100
হয়ে 100
jų 100
##ड 100
ela 100
##களின் 100
nako 100
##цца 100
maua 100
##lis 100
vaše 100
volta 100
informasi 100
level 100
principal 100
їх 100
איר 100
anyị 100
##ז 100
price 100
tập 100
અમે 100
pháp 100
ගැන 100
##ciones 100
palju 100
گئی 100
qab 100
##երը 100
General 100
работа 100
Bar 100
##اء 100
সে 100
##berg 100
##ła 100
ده 100
Life 100
OK 100
уу 100
##ţi 100
##tet 100
ingkang 100
masyarakat 100
zal 100
##യില് 100
Soomaaliya 100
її 100
##ден 100
liên 100
item 100
جائے 100
yfir 100
red 100
ove 100
مطابق 100
leat 100
beim 100
ndani 100
أي 100
big 100
Այս 100
ibu 100
hvordan 100
monde 100
##ال 100
тел 100
project 100
যায় 100
आले 100
##гы 100
ནས 100
nende 100
उपयोग 100
avant 100
Mobile 100
estos 100
sakit 100
ብቻ 100
##ою 100
kubwa 100
այլ 100
##gas 100
hacer 100
##lse 100
غیر 100
apre 100
conta 100
viac 100
भारतीय 100
Lorem 100
حتى 100
zai 100
She 100
dintre 100
Dengan 100
հետո 100
##ці 100
360 100
дөрес 100
କିଛି 100
فِي 100
Paulo 100
dul 100
Nr 100
Jack 100
ես 100
سان 100
selama 100
drugi 100
sò 100
بیشتر 100
lehet 100
ụlọ 100
ఉంటుంది 100
تاريخ 100
იგი 100
##аў 100
##цы 100
maaaring 100
vol 100
##ाची 100
##ula 100
done 100
##යක් 100
##نگ 100
mhux 100
##ное 100
મને 100
1988 100
maior 100
keep 100
##би 100
komanso 100
ይችላል 100
şekilde 100
##وا 100
sammen 100
ton 100
మేము 100
juda 100
##тан 100
##ном 100
##했다 100
##ens 100
saben 100
istifadə 100
##miz 100
##िक 100
ના 100
sol 100
నుంచి 100
kollha 100
সময় 100
HP 100
dilakukan 100
mór 100
pdf 100
mindre 100
anderen 100
ogni 100
Bhí 100
pan 100
sis 100
też 100
sada 100
ໜຶ່ງ 100
nl 100
course 100
##ша 100
vis 100
dont 100
sier 100
##နဲ့ 100
##ых 100
உங்கள் 100
libro 100
Yang 100
##িত 100
Cymru 100
photos 100
taka 100
##ند 100
mutta 100
kohta 100
##ં 100
биш 100
São 100
കെ 100
##େ 100
##lə 100
ktorá 100
##cije 100
kin 100
больше 100
nå 100
pran 100
##lia 100
नाम 100
قد 100
hope 100
##mit 100
Be 100
Inn 100
لیے 100
later 100
Ou 100
Des 100
single 100
начин 100
market 100
##tin 100
אויף 100
Rock 100
Jones 100
bor 100
Wie 100
##able 100
##ane 100
Times 100
##lara 100
##ები 100
মই 100
مردم 100
Yo 100
gera 100
##ব 100
hóa 100
segundo 100
Els 100
bwa 100
Bei 100
Kako 100
करून 100
болгон 100
##sse 100
یې 100
Royal 100
primeiro 100
hui 100
iray 100
ਮੈਂ 100
##kt 100
bệnh 100
manera 100
Ĉi 100
GB 100
##аа 100
##eni 100
sitio 100
овој 100
edib 100
нема 100
ඔහු 100
గురించి 100
below 100
सबसे 100
नेपाली 100
mendapatkan 100
hora 100
ông 100
olona 100
##iro 100
datang 100
answer 100
Power 100
anthu 100
wara 100
บาท 100
உள்ளது 100
lalawigan 100
Store 100
esto 100
nostra 100
gaat 100
direkt 100
இல்லை 100
ಮೂಲಕ 100
##шы 100
Company 100
##ver 100
special 100
begin 100
loa 100
dự 100
njia 100
بسیار 100
mode 100
##гә 100
kong 100
November 100
ambao 100
##ius 100
Social 100
дараа 100
меня 100
göre 100
lākou 100
ինչ 100
통해 100
Link 100
include 100
kind 100
membantu 100
##tha 100
ସେମାନେ 100
feel 100
göra 100
tí 100
genom 100
liv 100
함께 100
##ି 100
punto 100
ʻike 100
ech 100
gjithë 100
Out 100
lokal 100
ato 100
компании 100
qilish 100
##än 100
tkun 100
Email 100
fois 100
þeirra 100
Ihr 100
във 100
قَالَ 100
Long 100
muss 100
través 100
ছিল 100
افغانستان 100
sao 100
taea 100
##તા 100
##ið 100
DNA 100
дома 100
môže 100
gas 100
##ய 100
SEO 100
ՀՀ 100
аб 100
##ade 100
geus 100
minutes 100
विकास 100
question 100
rehiyon 100
##스 100
gusto 100
இருந்து 100
එම 100
ہوتا 100
tog 100
hunn 100
अध्यक्ष 100
##ք 100
inter 100
##دە 100
sedan 100
bonus 100
class 100
نظام 100
قابل 100
koko 100
जाते 100
personas 100
tiuj 100
oer 100
##ure 100
dalka 100
tab 100
Ford 100
papa 100
verir 100
paar 100
working 100
##nto 100
porta 100
आपको 100
ÑyÑ 100
makan 100
##િંગ 100
ください 100
sekarang 100
jekk 100
svoju 100
##им 100
away 100
grandes 100
idi 100
bodo 100
##ِ 100
Harry 100
دې 100
cya 100
സര് 100
가장 100
Global 100
nekoliko 100
##ven 100
خان 100
daya 100
legal 100
ngati 100
nom 100
Par 100
##sia 100
##ej 100
мо 100
זו 100
##נים 100
области 100
nes 100
Casa 100
101 100
ໜ້າ 100
igen 100
##ి 100
##স 100
مجھے 100
свою 100
mari 100
hanno 100
Kun 100
##nye 100
نیست 100
তা 100
gael 100
দিয়ে 100
Kanada 100
tới 100
cảm 100
tăng 100
kõik 100
nahimutangan 100
##лер 100
marca 100
##ши 100
##tos 100
čas 100
nhiên 100
коли 100
kort 100
cidade 100
tèt 100
kèk 100
sasa 100
един 100
##ाने 100
しています 100
etmək 100
कमी 100
baada 100
код 100
##ু 100
LINK 100
##하여 100
būs 100
Ci 100
еден 100
راه 100
kapab 100
##어 100
##jí 100
đơn 100
direct 100
iye 100
повеќе 100
hemm 100
##მა 100
##нің 100
sites 100
OTHER 100
hjá 100
omdat 100
##ted 100
pale 100
pono 100
ens 100
nyt 100
것을 100
Ev 100
job 100
kwe 100
bang 100
pili 100
ખૂબ 100
##াৰ 100
Mu 100
times 100
Johnson 100
しました 100
thống 100
کردن 100
##ive 100
tahay 100
انہوں 100
kembali 100
compte 100
बार 100
zato 100
molt 100
##ाचा 100
alleen 100
##ित 100
таксама 100
তবে 100
ÑpÑ 100
##ých 100
יכול 100
onda 100
また 100
##ino 100
hul 100
ನಮ್ಮ 100
suite 100
event 100
ធ្វើ 100
Watch 100
diesem 100
tagħha 100
stand 100
LLC 100
##ନ 100
##ನ್ನು 100
Հայաստանի 100
##ությունը 100
money 100
Eu 100
popular 100
свой 100
making 100
धेरै 100
Opens 100
ເປັນ 100
##ong 100
centre 100
sosial 100
сол 100
computer 100
health 100
ਦੀਆਂ 100
States 100
molto 100
ainsi 100
Biz 100
같은 100
život 100
OS 100
wî 100
lần 100
días 100
large 100
چند 100
توسط 100
action 100
##тын 100
second 100
বলেন 100
إذا 100
পর 100
ياخشى 100
1960 100
yakho 100
stop 100
вони 100
толькі 100
vet 100
##ал 100
yaiku 100
tento 100
ਕੋਈ 100
oħra 100
presidente 100
##ಯಲ್ಲಿ 100
##ני 100
හැකි 100
କିମ୍ବା 100
radi 100
audio 100
వారి 100
jour 100
run 100
زمان 100
view 100
thi 100
3000 100
fins 100
following 100
તેમના 100
לאחר 100
Kita 100
quốc 100
zuten 100
tê 100
پیدا 100
walang 100
बात 100
groot 100
ଆମେ 100
house 100
Chris 100
ਕਰੋ 100
namin 100
ਗਈ 100
Tas 100
empresas 100
agora 100
##een 100
године 100
##ín 100
##ட் 100
nekaj 100
خدمات 100
сайн 100
szerint 100
coa 100
liệu 100
Та 100
marang 100
więcej 100
प्राप्त 100
mukaan 100
Time 100
داد 100
aqui 100
кто 100
política 100
barang 100
mma 100
laat 100
mgbe 100
giao 100
több 100
ùn 100
##нд 100
hasil 100
त्यामुळे 100
قانون 100
ļoti 100
fie 100
மிகவும் 100
loko 100
##ነት 100
Fotografia 100
damit 100
தான் 100
सर्व 100
کتاب 100
šo 100
හැකිය 100
komen 100
5000 100
##fe 100
kartu 100
अनुसार 100
self 100
kulit 100
αν 100
tay 100
isteach 100
enda 100
lib 100
questions 100
Това 100
elu 100
qué 100
वर्ष 100
sok 100
больш 100
fotos 100
##များ 100
past 100
بخش 100
Resort 100
Ach 100
କରିଥିଲେ 100
hoạt 100
community 100
thương 100
ئەڭ 100
trọng 100
hori 100
jaoks 100
башка 100
abre 100
Christian 100
tant 100
kamera 100
##യ 100
può 100
buku 100
autre 100
Management 100
biss 100
cur 100
గా 100
##তা 100
##pan 100
אותו 100
suis 100
itilize 100
million 100
кулланучы 100
##هم 100
جميع 100
kurang 100
1986 100
ਨਾ 100
##tel 100
easy 100
create 100
Brown 100
എസ് 100
ఉన్నాయి 100
##tä 100
left 100
terbaik 100
Oh 100
##čka 100
##ਲ 100
مثل 100
##ील 100
##ama 100
ਜਾ 100
необходимо 100
setelah 100
ES 100
zoals 100
##ից 100
##ര് 100
кадәр 100
##ete 100
##gt 100
Für 100
##lerin 100
Au 100
কৰিব 100
ਤੁਸੀਂ 100
ĝin 100
ISO 100
права 100
eigen 100
masuk 100
why 100
##ის 100
انتخاب 100
nombre 100
tìm 100
Agus 100
également 100
nisu 100
Nova 100
още 100
nota 100
లేదు 100
##ове 100
অনেক 100
saab 100
osa 100
गरिएको 100
Ñr 100
درباره 100
##чки 100
Các 100
taua 100
##್ 100
mensen 100
ego 100
deb 100
Når 100
##ness 100
Yon 100
Ñu 100
dẫn 100
իսկ 100
তারা 100
##ज 100
vle 100
были 100
ມີ 100
nyuma 100
##ி 100
Villa 100
бути 100
Sony 100
असून 100
Server 100
ສະ 100
اسلامی 100
saber 100
##tud 100
ŝi 100
##дын 100
หรือ 100
दो 100
ਰਹੇ 100
मध्ये 100
عرض 100
эмес 100
##ksi 100
1987 100
##টা 100
##dar 100
##କ 100
meie 100
##ови 100
story 100
elke 100
Bet 100
aquesta 100
sawetara 100
dito 100
हुआ 100
pele 100
văn 100
details 100
Ви 100
случае 100
उनके 100
ilin 100
جاتا 100
ఆయన 100
आफ्नो 100
anjeunna 100
sedang 100
Francisco 100
რადგან 100
ohne 100
depuis 100
ನಂತರ 100
देश 100
lenei 100
server 100
mich 100
1985 100
đổi 100
Site 100
matou 100
ይችላሉ 100
яздырган 100
इन 100
amháin 100
քանի 100
araw 100
##ै 100
għandhom 100
denna 100
apenas 100
##ija 100
add 100
Artikel 100
metų 100
##יה 100
എം 100
Was 100
club 100
August 100
үед 100
этой 100
זאת 100
prije 100
##لىق 100
Қазақстан 100
бас 100
aking 100
ହେଉଛି 100
bài 100
kona 100
##сын 100
qədər 100
contre 100
##ба 100
##mis 100
eil 100
View 100
watch 100
כמה 100
Rio 100
tiêu 100
Show 100
फिर 100
iyang 100
september 100
sido 100
##jon 100
quá 100
##sten 100
hot 100
##കൾ 100
இருக்கும் 100
éis 100
duten 100
кейін 100
විසින් 100
دور 100
kecil 100
Louis 100
##യിൽ 100
##eri 100
Anjeun 100
##ice 100
##larni 100
##ние 100
profil 100
Denne 100
unui 100
bata 100
लाख 100
lọ 100
neue 100
search 100
dawn 100
##ation 100
ideal 100
Nem 100
GPS 100
Δεν 100
dire 100
##న్ 100
Би 100
izao 100
Questo 100
जाने 100
##ры 100
можа 100
Við 100
moins 100
በኋላ 100
болох 100
není 100
presente 100
biệt 100
آخر 100
magna 100
жұмыс 100
##lui 100
jkun 100
אך 100
vista 100
tega 100
ले 100
##ाचे 100
аның 100
tax 100
שפּיל 100
ئەمما 100
gr 100
छैन 100
ôl 100
בית 100
Program 100
1984 100
private 100
##ую 100
neste 100
##ют 100
##ح 100
Tags 100
ຄຳ 100
নতুন 100
##uka 100
många 100
vấn 100
##në 100
jista 100
Studio 100
##ux 100
quam 100
تحت 100
pihak 100
មក 100
sekali 100
pagina 100
against 100
VI 100
Zeit 100
Jahr 100
ça 100
Ons 100
ёстой 100
##ça 100
jetë 100
kota 100
wurden 100
bai 100
маш 100
ovo 100
ilgili 100
party 100
##ння 100
حقوق 100
dni 100
ինչպես 100
leh 100
కలిగి 100
UE 100
oblasti 100
devas 100
##ano 100
user 100
city 100
וואָס 100
Lietuvos 100
##יות 100
perfect 100
امام 100
Digital 100
diferentes 100
informatie 100
वा 100
ဟု 100
bom 100
aghaidh 100
##nna 100
право 100
কাজ 100
##த்தில் 100
##သည် 100
سر 100
diris 100
Tour 100
ladi 100
Creative 100
children 100
եք 100
Sam 100
1500 100
بىز 100
##age 100
هایی 100
була 100
##ਣ 100
त्यांनी 100
gut 100
توجه 100
hoa 100
falta 100
##ž 100
muốn 100
Berlin 100
trở 100
тази 100
nú 100
གི 100
iets 100
bilər 100
काय 100
##yu 100
jpg 100
როგორ 100
શું 100
timp 100
Dans 100
Joseph 100
pasar 100
pane 100
ժամանակ 100
địa 100
diren 100
##ების 100
बारे 100
##wan 100
##ue 100
bag 100
Juan 100
##ties 100
brand 100
##נה 100
valor 100
##nú 100
##हरू 100
strani 100
před 100
pom 100
IN 100
Një 100
când 100
განმავლობაში 100
toutes 100
соң 100
band 100
##ു 100
sense 100
leurs 100
##ак 100
էին 100
##йте 100
Old 100
kontakt 100
##cio 100
হতে 100
sống 100
##ской 100
politik 100
nibh 100
##ൻ 100
بدون 100
##ү 100
Services 100
vairāk 100
ned 100
илүү 100
Hall 100
Mike 100
Cup 100
ring 100
series 100
##ose 100
podem 100
langkung 100
жок 100
produkt 100
cô 100
එක 100
diẹ 100
##מה 100
хоёр 100
họ 100
##్ 100
हुन्छ 100
عَنْ 100
Kaj 100
druge 100
Just 100
قىلىش 100
více 100
These 100
κάθε 100
ezt 100
għandu 100
gure 100
##ते 100
euros 100
mér 100
##nden 100
##ого 100
##ros 100
ihr 100
After 100
mille 100
##ndan 100
prvi 100
byla 100
වී 100
##eren 100
iho 100
നിര് 100
##či 100
luga 100
إن 100
belum 100
BMW 100
professional 100
heel 100
haka 100
மூலம் 100
oras 100
##tzeko 100
pel 100
##ு 100
этот 100
ihre 100
около 100
donc 100
Standard 100
##Ñ 100
awal 100
pop 100
##lərin 100
teie 100
##och 100
pärast 100
ferheng 100
##iem 100
Tämä 100
hidup 100
##ab 100
tiempo 100
wuxuu 100
තුළ 100
asa 100
شخص 100
Florida 100
##တဲ့ 100
بارے 100
rad 100
sent 100
nouvelle 100
##še 100
##တော့ 100
రెండు 100
Gratis 100
anns 100
жизни 100
může 100
bolo 100
můžete 100
დიდი 100
Donald 100
مِنْ 100
mor 100
camera 100
##mise 100
przed 100
тој 100
##ο 100
както 100
##ss 100
Nou 100
sech 100
δύο 100
нең 100
nthawi 100
kaikki 100
##കള് 100
という 100
maha 100
##kel 100
##hia 100
प्रमुख 100
chuyển 100
##like 100
nipa 100
##nos 100
sesuai 100
ھەر 100
##ர் 100
komme 100
شوند 100
wè 100
hwn 100
##ket 100
pula 100
Cuenta 100
tiết 100
ئۇلار 100
prix 100
બે 100
sagði 100
គឺ 100
क्षेत्र 100
already 100
två 100
uko 100
فیلم 100
mos 100
área 100
##cji 100
болды 100
##тың 100
prie 100
##하지 100
fazla 100
##ስ 100
dėl 100
berada 100
Centre 100
ਕੀ 100
yao 100
duit 100
##eta 100
ahau 100
என்பது 100
Antonio 100
jednak 100
toate 100
કારણ 100
خاص 100
##یں 100
Adam 100
För 100
MS 100
amma 100
jedna 100
быў 100
##ай 100
DA 100
μόνο 100
##rii 100
ਹਾਂ 100
Hann 100
كېيىن 100
masing 100
اين 100
populasyon 100
try 100
follow 100
##ట్ 100
lainnya 100
Union 100
##est 100
Estados 100
מאוד 100
бүх 100
բայց 100
cando 100
számára 100
dessa 100
گئے 100
##нан 100
##cja 100
saan 100
tany 100
ਰਿਹਾ 100
##tir 100
није 100
цього 100
mine 100
doar 100
оваа 100
BBC 100
ʻole 100
अशी 100
month 100
##하게 100
gara 100
##ф 100
يا 100
पास 100
Can 100
kienet 100
турында 100
##വും 100
zou 100
دوران 100
##ח 100
##द 100
##bus 100
cena 100
કરીને 100
Kas 100
casino 100
AC 100
grand 100
تولید 100
tome 100
quanto 100
olaraq 100
साल 100
##mm 100
לפני 100
Για 100
alikuwa 100
سطح 100
##ora 100
toute 100
ат 100
млн 100
két 100
mesin 100
##시 100
youtube 100
##sto 100
aasta 100
##ese 100
üle 100
HTML 100
интернет 100
keer 100
Voor 100
البحث 100
lor 100
hata 100
dikin 100
haujlwm 100
ofte 100
192 100
bahawa 100
որոնք 100
trung 100
First 100
pois 100
umum 100
Up 100
따라 100
##ында 100
був 100
kore 100
huu 100
җиткерегез 100
Bill 100
Дусларыгызга 100
River 100
ás 100
##дің 100
lịch 100
melhor 100
celu 100
##sy 100
არა 100
bliver 100
აქვს 100
projekt 100
card 100
Dar 100
thing 100
hadi 100
##하기 100
bụrụ 100
अनेक 100
##nas 100
##tat 100
termasuk 100
tsara 100
##ori 100
Eesti 100
yahay 100
##že 100
दी 100
jälkeen 100
μετά 100
low 100
banda 100
##كە 100
##ץ 100
đặt 100
sebe 100
##हरु 100
trẻ 100
##кой 100
מי 100
мүмкін 100
أكثر 100
тем 100
Gold 100
bog 100
ry 100
vrijeme 100
Iran 100
sian 100
böyük 100
ын 100
saman 100
cuộc 100
ବୋଲି 100
Henry 100
grad 100
##uta 100
något 100
altri 100
информация 100
##sku 100
అయితే 100
ניתן 100
okkar 100
Manager 100
دارند 100
##lık 100
##nica 100
##mą 100
සමඟ 100
##ங்கள் 100
км 100
##за 100
एका 100
##ise 100
mama 100
prodotti 100
nhau 100
bên 100
##дер 100
svojim 100
když 100
aha 100
nivel 100
studio 100
##Q 100
##త 100
##ity 100
##დ 100
eh 100
students 100
uur 100
نىڭ 100
tutto 100
дел 100
rekao 100
तयार 100
##ola 100
mam 100
گی 100
האָט 100
##fo 100
دنیا 100
primeira 100
هغه 100
rehetra 100
giờ 100
acu 100
105 100
qanday 100
ABŞ 100
##ውን 100
grup 100
Note 100
##ico 100
lực 100
آب 100
લોકો 100
विशेष 100
Enero 100
vers 100
Joe 100
Ол 100
ብዙ 100
##ним 100
pris 100
José 100
שלי 100
anys 100
##ս 100
há 100
σου 100
alat 100
គេ 100
വര് 100
##rie 100
domu 100
ogé 100
##ль 100
Williams 100
##less 100
##களுக்கு 100
ikiwa 100
США 100
thêm 100
adipiscing 100
phí 100
##чна 100
memberi 100
مجلس 100
##if 100
kasar 100
##ake 100
macam 100
entènèt 100
Great 100
noa 100
sea 100
##ách 100
box 100
گزارش 100
##് 100
##व 100
དུ 100
tug 100
sobie 100
jumlah 100
сайта 100
Obama 100
##ण 100
cz 100
##sch 100
##ট 100
tangan 100
##э 100
ngayon 100
val 100
مي 100
nagyon 100
sáng 100
##ныя 100
ты 100
EN 100
games 100
শুরু 100
úsáid 100
sili 100
##ाला 100
اینکه 100
donde 100
ris 100
али 100
##гі 100
cung 100
mercado 100
tour 100
mezi 100
malam 100
Estado 100
partner 100
իրենց 100
झाले 100
qhia 100
Marie 100
##dı 100
ақ 100
kati 100
Chicago 100
zure 100
cù 100
thứ 100
guru 100
##net 100
önce 100
strane 100
ÑuÑ 100
után 100
daugiau 100
hae 100
rada 100
ĝis 100
келген 100
उन्हें 100
chuyên 100
light 100
მიერ 100
tagħna 100
nagy 100
dago 100
Për 100
ukoll 100
metus 100
komt 100
અન્ય 100
kawaida 100
lsa 100
application 100
favor 100
neza 100
són 100
Health 100
kurie 100
Lai 100
VIDEO 100
clients 100
##® 100
kuva 100
olen 100
foarte 100
olika 100
einnig 100
gjatë 100
veliko 100
yangu 100
تهران 100
correo 100
دەپ 100
warna 100
zien 100
smartphone 100
hours 100
##tic 100
cost 100
Japan 100
ያለው 100
##ు 100
##din 100
nuova 100
##bile 100
##eko 100
siitä 100
##С 100
##tsa 100
##प 100
##ան 100
kwanza 100
chuir 100
στους 100
##ib 100
ሰው 100
Ada 100
wann 100
##ରୁ 100
##tal 100
بعض 100
folk 100
nội 100
##aka 100
##kar 100
gus 100
##šanas 100
qual 100
##ಾ 100
Not 100
بازار 100
##gar 100
hoàn 100
ứng 100
вода 100
##set 100
##ை 100
будзе 100
خلاف 100
màu 100
tes 100
premier 100
ពេល 100
firma 100
hefyd 100
metal 100
##վում 100
dies 100
olib 100
performance 100
sebab 100
вэ 100
Ao 100
राज्य 100
sel 100
##tie 100
সব 100
Hi 100
پاس 100
жоқ 100
té 100
CA 100
stvari 100
estão 100
inuu 100
primera 100
باشقا 100
nešto 100
آیا 100
தனது 100
##রা 100
होगा 100
Software 100
tijd 100
##lich 100
##리 100
перед 100
kubva 100
##ින් 100
អាច 100
կողմից 100
сайте 100
nulla 100
nyingi 100
España 100
ар 100
ນຳ 100
bydd 100
vēl 100
##িক 100
tro 100
tiếng 100
चाहिए 100
chaw 100
És 100
منذ 100
nunca 100
miaka 100
Jahren 100
oldu 100
##nge 100
Jakarta 100
vẫn 100
буд 100
Bangla 100
டி 100
یو 100
üks 100
kedua 100
##ി 100
gegen 100
Sun 100
##yə 100
Glosbe 100
နဲ့ 100
plant 100
baby 100
Bộ 100
wanneer 100
która 100
staff 100
Tim 100
##nni 100
대해 100
pasti 100
आली 100
sọ 100
đất 100
לו 100
महिला 100
झाली 100
danas 100
tomu 100
country 100
nodig 100
тэр 100
Namun 100
sở 100
első 100
pemain 100
Commons 100
продукти 100
##cions 100
##ాలు 100
tista 100
isto 100
のお 100
makanan 100
ਗਏ 100
داخل 100
tonu 100
کنیم 100
velit 100
##А 100
nicht 100
Ei 100
staan 100
també 100
##ff 100
Point 100
receive 100
других 100
mogelijk 100
হচ্ছে 100
uk 100
şey 100
см 100
Ina 100
##lwa 100
것입니다 100
mondo 100
binnen 100
fall 100
हुन 100
politika 100
Forum 100
oro 100
kura 100
value 100
így 100
##ato 100
alltid 100
obra 100
tangata 100
nuestra 100
obair 100
ປະ 100
images 100
गर्दै 100
यदि 100
needs 100
oso 100
وزیر 100
##گ 100
poden 100
として 100
sách 100
##ру 100
##сыз 100
когато 100
sui 100
mete 100
##ാ 100
এটা 100
Lan 100
##nost 100
ଅଛି 100
##isa 100
##ىنى 100
rast 100
teb 100
linn 100
##kou 100
дня 100
bent 100
المتحدة 100
dog 100
##ithe 100
##xa 100
Photo 100
ever 100
Kev 100
others 100
festival 100
nghệ 100
##ված 100
##uan 100
ଥିବା 100
చేశారు 100
atanapi 100
Це 100
##በት 100
##isi 100
মনে 100
##ngan 100
Frank 100
Marketing 100
##нең 100
suo 100
علي 100
sitä 100
दोन 100
Miss 100
کان 100
lima 100
nini 100
cuenta 100
##τα 100
கொண்டு 100
zelo 100
nilai 100
aki 100
##mat 100
##ಗಳಲ್ಲಿ 100
bé 100
اسلام 100
بوده 100
شدن 100
##iri 100
##ix 100
fo 100
##Р 100
meses 100
huis 100
##nice 100
Seite 100
বিভিন্ন 100
##uma 100
پھر 100
mitte 100
Press 100
phone 100
entrada 100
Flash 100
##ման 100
anno 100
thaum 100
עבור 100
pouvez 100
שלנו 100
ਬਹੁਤ 100
tích 100
outras 100
Lè 100
væri 100
##kat 100
Kad 100
несколько 100
##했습니다 100
Eine 100
##ლი 100
##ee 100
head 100
nggawe 100
ଜଣେ 100
Express 100
##მ 100
gjithashtu 100
night 100
حول 100
Sant 100
##së 100
pret 100
Get 100
නමුත් 100
tegen 100
എന്ന് 100
Smart 100
deel 100
nə 100
Angeles 100
taas 100
##sche 100
ତୁମେ 100
soit 100
faia 100
добре 100
står 100
Lub 100
produtos 100
##kal 100
##사 100
browser 100
मुझे 100
pamamagitan 100
яка 100
drive 100
ჩვენი 100
kl 100
ཡོད 100
చేసిన 100
tổ 100
##gang 100
Und 100
sociale 100
Ин 100
gjitha 100
úgy 100
Manchester 100
darba 100
ძალიან 100
kjo 100
avait 100
usando 100
página 100
лица 100
basis 100
mnie 100
alan 100
تواند 100
##eve 100
##ви 100
##нинг 100
دولت 100
måste 100
Wij 100
tên 100
которая 100
offers 100
பி 100
##yle 100
teo 100
До 100
ovaj 100
energia 100
яны 100
Tento 100
paj 100
Jesu 100
##ero 100
preko 100
th 100
система 100
ತಮ್ಮ 100
##িল 100
भन्ने 100
##rer 100
##oti 100
450 100
means 100
које 100
##jų 100
##ته 100
места 100
medio 100
umuntu 100
##ių 100
하는 100
ийн 100
Dunay 100
Yeni 100
##ду 100
Ve 100
nëse 100
tsev 100
Mini 100
##eg 100
problemas 100
##gh 100
dựng 100
SD 100
Pokud 100
alang 100
kanya 100
##ový 100
1983 100
kont 100
سازمان 100
##لەر 100
qualquer 100
música 100
ഞാൻ 100
Þetta 100
միայն 100
tuổi 100
dê 100
vivo 100
pouco 100
οποία 100
1982 100
ова 100
مواد 100
less 100
DJ 100
modelo 100
papel 100
жыл 100
මත 100
যা 100
Scott 100
onu 100
##վել 100
حيث 100
huko 100
conditions 100
office 100
programu 100
نوع 100
mert 100
inom 100
lu 100
будут 100
données 100
nhập 100
##rna 100
Tidak 100
שלא 100
##ča 100
together 100
सुरू 100
것이 100
момент 100
bërë 100
ყველაზე 100
##ር 100
##ев 100
kweli 100
Kjo 100
micca 100
ایم 100
until 100
استان 100
कार्यक्रम 100
outro 100
galima 100
kite 100
ajal 100
##iva 100
aplikasi 100
##த்தின் 100
همچنین 100
بیان 100
moderne 100
tudo 100
kugirango 100
campo 100
tez 100
1950 100
içinde 100
Pri 100
menarik 100
པོ 100
kau 100
další 100
##ది 100
într 100
##만 100
##ünk 100
повече 100
hoy 100
siji 100
pea 100
بولىدۇ 100
ihany 100
ук 100
iti 100
##ые 100
Log 100
teen 100
##RA 100
ngunit 100
uair 100
says 100
mense 100
##سى 100
veľmi 100
220 100
اے 100
proces 100
якщо 100
dados 100
##leg 100
ሁኔታ 100
deyil 100
България 100
まで 100
tshaj 100
मुख्य 100
##성 100
còn 100
ĉar 100
col 100
agam 100
hit 100
##ன 100
kemudian 100
bylo 100
amarga 100
ທຳ 100
buy 100
آموزش 100
שלו 100
toujours 100
մենք 100
ọzọ 100
sett 100
зүйл 100
Alex 100
research 100
##ft 100
anggota 100
դա 100
##ాన్ని 100
kinne 100
NO 100
minut 100
работи 100
अशा 100
##larını 100
място 100
fire 100
source 100
erat 100
જોઈએ 100
##ээр 100
##én 100
కాదు 100
bad 100
permainan 100
##чка 100
болса 100
tona 100
sakop 100
##nika 100
იმ 100
videos 100
England 100
fearr 100
sekitar 100
deste 100
baba 100
##સ 100
weet 100
tỉnh 100
From 100
bất 100
putea 100
imwe 100
##аар 100
मला 100
##ія 100
menehi 100
Tsy 100
ਦਿੱਤਾ 100
mye 100
##ата 100
##urs 100
талаар 100
sèvi 100
яе 100
करा 100
chat 100
በዚህ 100
xã 100
ønsker 100
всегда 100
tərəfindən 100
##ਕ 100
1945 100
hela 100
phố 100
##the 100
फिल्म 100
chomh 100
quy 100
##tako 100
reira 100
space 100
mbi 100
getur 100
ඔබට 100
nua 100
మంది 100
diverse 100
volgende 100
ਜਿਸ 100
mencari 100
ప్రతి 100
move 100
Rwanda 100
ቤት 100
Master 100
चार 100
edi 100
##ede 100
tsim 100
Series 100
##sal 100
chế 100
يتم 100
এখন 100
lishi 100
black 100
alisema 100
Sir 100
التعليقات 100
khu 100
ind 100
ಗೆ 100
rock 100
ملک 100
הזה 100
konsa 100
##jā 100
hänen 100
Test 100
Katika 100
Ito 100
Kurdish 100
Creek 100
klik 100
1979 100
Steve 100
После 100
baino 100
oft 100
bentuk 100
ඔවුන් 100
ger 100
yadda 100
tiež 100
##ham 100
dui 100
aা 100
##ков 100
##ൽ 100
##ON 100
##트 100
kontrol 100
##క 100
ની 100
ала 100
والی 100
Ili 100
lia 100
Unidos 100
tiga 100
دانلود 100
προς 100
##NG 100
##ām 100
President 100
platform 100
hace 100
usar 100
##ছে 100
phương 100
berbagai 100
থাকে 100
markii 100
##dur 100
mogą 100
produits 100
ಹೆಚ್ಚು 100
Mỹ 100
tās 100
նոր 100
соли 100
سه 100
բոլոր 100
##siz 100
transport 100
gerne 100
##wać 100
thích 100
quem 100
tjetër 100
مصر 100
##ono 100
eest 100
വി 100
fr 100
худ 100
update 100
합니다 100
##qa 100
ker 100
170 100
makes 100
park 100
##cin 100
seine 100
freisin 100
fino 100
links 100
म्हणजे 100
える 100
##నే 100
##ping 100
amfani 100
iche 100
Anh 100
सेवा 100
##ول 100
seng 100
ಆನ್ಲೈನ್ 100
##ază 100
bayan 100
fe 100
এটি 100
leor 100
басқа 100
jejich 100
üzrə 100
Kan 100
jonka 100
minute 100
ngay 100
zwei 100
##nosti 100
त्यांना 100
##ция 100
jours 100
amikor 100
##ती 100
Huwa 100
された 100
moje 100
##los 100
ଥିଲା 100
##owy 100
ضرورت 100
olur 100
після 100
apabila 100
хто 100
acara 100
dacă 100
své 100
তাই 100
future 100
visa 100
jistgħu 100
innan 100
often 100
тези 100
Sen 100
lana 100
либо 100
дейін 100
mjög 100
ملی 100
అన్ని 100
##ster 100
debe 100
##maan 100
mulai 100
##vá 100
##jan 100
##llo 100
erhalten 100
fháil 100
tingkat 100
verwendet 100
första 100
داشت 100
julọ 100
གྱི 100
Вам 100
##wyd 100
اطلاعات 100
vrlo 100
jó 100
become 100
muhimu 100
url 100
ថ្ងៃ 100
života 100
mostra 100
yaxshi 100
segir 100
человек 100
unei 100
ting 100
sehemu 100
havde 100
muab 100
wrth 100
##ag 100
років 100
mah 100
또한 100
gode 100
roinnt 100
उच्च 100
rate 100
##10 100
##ram 100
kim 100
##ып 100
##ndə 100
ир 100
ਵਾਲੇ 100
Africa 100
avèk 100
период 100
##ୀ 100
marka 100
ჩემი 100
jei 100
network 100
མི 100
hin 100
όταν 100
Är 100
altijd 100
##čne 100
དེ 100
වඩා 100
mois 100
sector 100
lelei 100
viel 100
زیر 100
түгел 100
##σε 100
કહ્યું 100
##री 100
ಅನ್ನು 100
moda 100
ngan 100
iga 100
그리고 100
save 100
##ły 100
Restaurant 100
ଯଦି 100
##idh 100
Share 100
арқылы 100
causa 100
ក៏ 100
dias 100
ماه 100
##ый 100
ĉiuj 100
gëtt 100
ទេ 100
একটা 100
Ten 100
##ਿਆ 100
log 100
ਕਿਸੇ 100
Linux 100
Och 100
haere 100
##чу 100
##tă 100
items 100
seks 100
Disney 100
ដល់ 100
झाला 100
NY 100
tiden 100
##മായി 100
TP 100
neki 100
kaore 100
bith 100
amor 100
cat 100
giảm 100
प्रत्येक 100
رنگ 100
##NA 100
možné 100
nuevo 100
mesta 100
slik 100
##ご 100
##மாக 100
Museum 100
minggu 100
չեն 100
Deus 100
Nanging 100
1978 100
واحد 100
cultura 100
zaradi 100
ایجاد 100
terjadi 100
punt 100
tiegħi 100
Agar 100
##най 100
մեկ 100
Anne 100
egen 100
trabalho 100
quyết 100
ibang 100
##ký 100
Model 100
daudz 100
interior 100
having 100
ວ່າ 100
manusia 100
WhatsApp 100
Valley 100
ਬਾਅਦ 100
Journal 100
eles 100
##ными 100
juba 100
lapho 100
någon 100
naye 100
vật 100
Nws 100
##сан 100
quelques 100
##shi 100
ceann 100
प्रदेश 100
feira 100
କରନ୍ତି 100
##mist 100
##vel 100
kino 100
Til 100
##મ 100
##ins 100
ede 100
wektu 100
management 100
حضور 100
##ciju 100
##ً 100
heç 100
nós 100
ialah 100
kena 100
milyon 100
மக்கள் 100
имеет 100
print 100
Калі 100
Games 100
itt 100
Με 100
nữ 100
##ದೆ 100
Hollywood 100
quyền 100
mënyrë 100
apan 100
केही 100
Bitcoin 100
##ام 100
1975 100
ligne 100
##owych 100
Jahre 100
było 100
dibe 100
##sini 100
mākou 100
##வை 100
ادامه 100
roa 100
असा 100
ಎಂಬ 100
bisnis 100
kishte 100
Yesu 100
note 100
đặc 100
თქვა 100
fokus 100
vind 100
1981 100
##မှ 100
message 100
ერთ 100
Você 100
##tse 100
batho 100
SE 100
hvad 100
##ပါ 100
sio 100
##ld 100
Semalt 100
බොහෝ 100
pueden 100
свои 100
bone 100
ဖြစ်ပါတယ် 100
Iki 100
дали 100
Hot 100
وَ 100
##ában 100
international 100
##hed 100
selalu 100
vậy 100
seja 100
tror 100
має 100
##τε 100
avez 100
ຈະ 100
dane 100
sababaraha 100
range 100
LG 100
fim 100
именно 100
##ust 100
съм 100
THE 100
diğer 100
points 100
మాత్రమే 100
##ної 100
Hal 100
люди 100
lange 100
##ovi 100
eden 100
##ئی 100
##ğı 100
මට 100
انسان 100
đánh 100
aastal 100
inu 100
korero 100
##mbo 100
xem 100
сарын 100
nostro 100
cai 100
авах 100
thuật 100
##ido 100
edən 100
lalo 100
autor 100
என்ன 100
մեծ 100
Ĝi 100
anmeldelser 100
##ල 100
visi 100
seluruh 100
##nir 100
público 100
##ени 100
reading 100
puta 100
jetzt 100
Bluetooth 100
होत 100
үйл 100
yaxşı 100
تاریخ 100
trợ 100
ನನ್ನ 100
ngoài 100
ranei 100
temu 100
##ase 100
##נות 100
##적인 100
xây 100
jeszcze 100
wkoll 100
chez 100
tincidunt 100
akin 100
ਸਨ 100
នៃ 100
spam 100
Cross 100
დროს 100
uile 100
##ского 100
stort 100
Cette 100
compartir 100
اول 100
unique 100
Chrome 100
risk 100
Menschen 100
ຈຳ 100
##ich 100
ਕੁਝ 100
chưa 100
posts 100
foram 100
dois 100
muna 100
terra 100
called 100
زبان 100
mēs 100
Shop 100
dollar 100
##ੋ 100
కొన్ని 100
##يات 100
CO 100
##ик 100
customer 100
st 100
שם 100
##ската 100
Nederland 100
pays 100
कुनै 100
bilder 100
उपलब्ध 100
taobh 100
##ियों 100
tử 100
jie 100
machen 100
front 100
نشان 100
निर्णय 100
ដើម្បី 100
செய்ய 100
живот 100
đều 100
##না 100
pet 100
machine 100
افزایش 100
לך 100
bora 100
nuestro 100
kalite 100
уште 100
þau 100
តាម 100
వరకు 100
##ਮ 100
Welt 100
options 100
ახალი 100
##lon 100
nouveau 100
mala 100
болсон 100
##osa 100
##yen 100
लोग 100
الإعلان 100
ישראל 100
tutte 100
Якщо 100
##יים 100
deui 100
Western 100
mate 100
poco 100
PVC 100
client 100
tetap 100
זענען 100
moto 100
##lli 100
vært 100
бид 100
eman 100
gmail 100
numero 100
teraz 100
##्या 100
Jeśli 100
##mar 100
##ాల 100
Jei 100
ên 100
twitter 100
alguns 100
odio 100
Association 100
Under 100
より 100
features 100
rằng 100
sposób 100
bine 100
Orrialdearen 100
ainult 100
которых 100
ús 100
##ებს 100
blive 100
php 100
dopo 100
weg 100
भएका 100
wao 100
##анд 100
##iden 100
सबै 100
##ille 100
સમય 100
Мин 100
once 100
berkata 100
কে 100
האם 100
તમને 100
nasa 100
cá 100
##ස් 100
lado 100
поради 100
tím 100
között 100
שהוא 100
сега 100
លើ 100
fis 100
##ds 100
enye 100
သည် 100
ibi 100
করুন 100
Unë 100
##hana 100
అది 100
ft 100
complete 100
training 100
РФ 100
Huawei 100
била 100
wako 100
nuovo 100
nok 100
quod 100
باعث 100
balik 100
போது 100
দিন 100
ત્યાં 100
##dia 100
жақсы 100
uni 100
Deutschland 100
wengi 100
cela 100
wote 100
lwm 100
Про 100
seit 100
kuat 100
бе 100
capital 100
##vis 100
sabi 100
كېرەك 100
gdy 100
עוד 100
নেই 100
ទី 100
ଆପଣ 100
നിന്നും 100
ນີ້ 100
Korea 100
ձեր 100
enger 100
Pentru 100
rol 100
анын 100
shop 100
בו 100
булган 100
##од 100
qho 100
რა 100
##යේ 100
keluarga 100
saada 100
##ком 100
kỳ 100
болот 100
дуже 100
liom 100
තිබේ 100
između 100
gjøre 100
cos 100
cun 100
podľa 100
ollut 100
##šu 100
##ତା 100
pay 100
beliau 100
にも 100
Net 100
હવે 100
restaurant 100
შორის 100
mismo 100
བྱེད 100
slot 100
bedre 100
pedig 100
##hat 100
вид 100
bana 100
حل 100
మా 100
لوگوں 100
##ור 100
##wyr 100
kupata 100
##ో 100
Youtube 100
çdo 100
Ihrer 100
duk 100
electrónico 100
gadā 100
យើង 100
ולא 100
dakong 100
comes 100
Carlos 100
panahon 100
delen 100
##လည်း 100
eniyan 100
##ена 100
ici 100
major 100
Ook 100
ගත 100
չէ 100
##йн 100
dall 100
broj 100
permet 100
alte 100
તમારી 100
бил 100
##šanu 100
majd 100
women 100
Trong 100
##ल्या 100
tục 100
några 100
soll 100
hướng 100
steeds 100
وجہ 100
pé 100
خبر 100
akwụkwọ 100
བོད 100
temperatura 100
##ਤ 100
inaweza 100
był 100
Bansa 100
friends 100
боломжтой 100
informations 100
wieħed 100
ел 100
करणे 100
vendar 100
cerca 100
##up 100
key 100
##ить 100
superior 100
yng 100
나는 100
##يا 100
tych 100
##sis 100
আগে 100
வரை 100
العربية 100
екі 100
##́ 100
aige 100
chifukwa 100
dedi 100
때문에 100
podle 100
firmy 100
102 100
წელს 100
##게 100
law 100
AI 100
required 100
माहिती 100
тым 100
##ová 100
guide 100
tos 100
μέσα 100
##oi 100
nk 100
средства 100
libre 100
ولا 100
علی 100
değil 100
विभिन्न 100
verschillende 100
хийх 100
Cookie 100
##ische 100
Bạn 100
Taylor 100
bør 100
Premium 100
année 100
Sur 100
विचार 100
##rit 100
lit 100
mina 100
geri 100
Let 100
රී 100
sedikit 100
along 100
lesz 100
visit 100
##lta 100
ʻano 100
thủ 100
אַז 100
##isen 100
##ega 100
ໃຫ້ 100
kuten 100
uning 100
rundt 100
kuris 100
experiencia 100
##ың 100
##vanje 100
##ká 100
enough 100
minimum 100
##yla 100
tiel 100
gente 100
imaju 100
##zio 100
समेत 100
sức 100
Những 100
karakter 100
મારા 100
Yen 100
Jehova 100
પાસે 100
Pas 100
##iert 100
ກັບ 100
đăng 100
##uz 100
kelas 100
mūsų 100
voit 100
phân 100
owo 100
Box 100
white 100
gjort 100
##ného 100
Most 100
##മാണ് 100
##ční 100
okkur 100
alto 100
رئيس 100
zelf 100
##ime 100
asta 100
fordi 100
devam 100
tseem 100
Jadi 100
karibu 100
pp 100
mbere 100
112 100
எஸ் 100
часа 100
bắt 100
Port 100
jwèt 100
ਤੱਕ 100
persone 100
ایس 100
four 100
yê 100
tuleb 100
partie 100
thay 100
##niu 100
deri 100
magaalada 100
Young 100
dieses 100
شي 100
mắt 100
pracy 100
Set 100
Come 100
##ż 100
enkelt 100
tačiau 100
##rak 100
luna 100
Baby 100
teeb 100
produkter 100
पुलिस 100
AM 100
mellom 100
gdje 100
sagt 100
viņa 100
##tura 100
nếu 100
##imi 100
быць 100
նրա 100
belə 100
dobre 100
जीवन 100
##から 100
tengah 100
hér 100
iżda 100
boshqa 100
familie 100
करण्यासाठी 100
depan 100
ins 100
##ڈ 100
sitten 100
petit 100
vit 100
atawa 100
viņš 100
##тің 100
CEO 100
असेल 100
##ە 100
evento 100
Mountain 100
ләкин 100
teha 100
##ನ್ 100
lập 100
हुई 100
nėra 100
мм 100
आला 100
ශ් 100
otros 100
##rne 100
Kong 100
dtí 100
यांच्या 100
Atua 100
Ann 100
કર્યું 100
##면 100
savoir 100
grote 100
tíma 100
neng 100
série 100
above 100
##čni 100
pei 100
##ларын 100
111 100
اللہ 100
шуд 100
ში 100
kroz 100
აშშ 100
tasi 100
##း 100
বছর 100
jednom 100
##kwa 100
Mexico 100
vừa 100
gaya 100
forte 100
ori 100
latest 100
adres 100
ita 100
dib 100
across 100
లు 100
##wana 100
mums 100
virus 100
Selain 100
hawwe 100
mitt 100
едно 100
එක් 100
καθώς 100
travail 100
error 100
Tinipong 100
جاری 100
##thi 100
sistemi 100
দেখা 100
เช่น 100
kleine 100
sumber 100
biến 100
getting 100
montre 100
phụ 100
##elo 100
efa 100
alors 100
sadece 100
റെ 100
Rose 100
Door 100
zama 100
عضو 100
128 100
nawet 100
společnosti 100
aja 100
يىلى 100
Sin 100
antaŭ 100
##të 100
Nacional 100
Start 100
Victoria 100
njih 100
agad 100
उसके 100
short 100
lokacin 100
##don 100
litt 100
zonke 100
##لىك 100
sya 100
юу 100
bình 100
dunay 100
χρόνια 100
1974 100
ene 100
musí 100
June 100
British 100
location 100
اللَّهِ 100
fari 100
sahaja 100
Elle 100
kokapena 100
##bili 100
osoba 100
penyakit 100
ildə 100
mars 100
unrhyw 100
##zza 100
##zia 100
1976 100
მათი 100
ব্যবহার 100
دے 100
##del 100
##ր 100
phục 100
115 100
##ії 100
ký 100
halda 100
þessu 100
אשר 100
ممکن 100
இரண்டு 100
table 100
önemli 100
##lere 100
вот 100
बताए 100
Costa 100
tofauti 100
##డ్ 100
ללא 100
ST 100
Lê 100
technology 100
ទាំង 100
Ze 100
xəbər 100
voir 100
potom 100
යුතුය 100
##တွင် 100
Hän 100
human 100
mengambil 100
Va 100
libero 100
cepat 100
புதிய 100
##uh 100
##cm 100
240 100
yet 100
jauh 100
երբ 100
उसे 100
pirms 100
##stä 100
તેમની 100
nghiệm 100
vă 100
batean 100
hva 100
aza 100
##nun 100
##ಗಳಿಗೆ 100
forme 100
##யாக 100
Гэта 100
அவரது 100
pare 100
כאשר 100
##će 100
môžete 100
##ർ 100
medzi 100
ഏറ്റവും 100
niile 100
बीच 100
sering 100
вже 100
היו 100
mengenai 100
භාවිතා 100
කරයි 100
##장 100
mise 100
Good 100
unit 100
يەنە 100
report 100
108 100
daug 100
didn 100
least 100
bho 100
posto 100
neid 100
गरी 100
Donec 100
##bel 100
mati 100
ran 100
hilo 100
104 100
lige 100
profesional 100
Ver 100
От 100
пры 100
प्रयोग 100
Fotó 100
Drive 100
##ulo 100
example 100
##via 100
நாங்கள் 100
segunda 100
diam 100
##ಕ 100
mengatakan 100
ją 100
све 100
mitä 100
bring 100
Mercedes 100
Liga 100
mellan 100
بلغ 100
ceny 100
drugih 100
##wu 100
niż 100
يې 100
già 100
tenê 100
##ら 100
Jackson 100
##igh 100
Mei 100
pra 100
articles 100
request 100
adresse 100
онҳо 100
kii 100
जे 100
talaga 100
حق 100
هل 100
wale 100
thân 100
fora 100
tomto 100
Line 100
ମଧ୍ୟରେ 100
##dza 100
##ّ 100
personnes 100
რამდენიმე 100
essa 100
industry 100
##lat 100
قسم 100
Hong 100
ish 100
isku 100
पार्टी 100
protiv 100
ಯಾವುದೇ 100
الآن 100
خرید 100
saiki 100
ең 100
часто 100
उस 100
goede 100
טוב 100
##ओं 100
##lige 100
كۆپ 100
gebruikt 100
Stok 100
такой 100
ҳам 100
informazioni 100
noget 100
કામ 100
Mereka 100
##수 100
იყოს 100
talagsaon 100
##zie 100
##kov 100
año 100
diesen 100
आपके 100
jelas 100
ais 100
##šana 100
دن 100
osób 100
ව් 100
##ਂ 100
nove 100
प्रकार 100
دانشگاه 100
таких 100
##dade 100
option 100
mear 100
1977 100
ular 100
##ssä 100
وسلم 100
kaha 100
yıl 100
UV 100
cómo 100
insan 100
koos 100
ilikuwa 100
مناسب 100
##yor 100
justo 100
drie 100
कुरा 100
aman 100
mọi 100
noong 100
aller 100
##nud 100
ngerti 100
kabanay 100
valsts 100
##yên 100
##කට 100
permite 100
##වා 100
Norge 100
સૌથી 100
pau 100
velmi 100
altres 100
clientes 100
ewwel 100
तसेच 100
reikia 100
କହିଛନ୍ତି 100
season 100
ሰዎች 100
pandan 100
تلاش 100
tiên 100
abin 100
Bob 100
Nguyễn 100
niveau 100
##ské 100
zwischen 100
cái 100
Nos 100
utilisation 100
viene 100
verder 100
##ń 100
kienu 100
sèlman 100
Хэрэв 100
##ン 100
هیچ 100
raug 100
इसे 100
echt 100
таго 100
taona 100
##com 100
rapport 100
कार्य 100
podczas 100
ڪري 100
внимание 100
tale 100
человека 100
அதன் 100
हुन् 100
##ས 100
કર્યો 100
vaid 100
##å 100
viele 100
nguvu 100
##cs 100
त्यांच्या 100
ընթացքում 100
War 100
CE 100
PS 100
વિશે 100
nhanh 100
##ții 100
##imo 100
යුතු 100
nell 100
##nio 100
తరువాత 100
Hai 100
ਹੋਣ 100
##ging 100
position 100
##yı 100
fase 100
wasu 100
##wood 100
##ție 100
さい 100
posible 100
unde 100
kasino 100
1920 100
##වල 100
##ić 100
Book 100
##나 100
wiki 100
සිදු 100
Hulyo 100
held 100
معلومات 100
Nach 100
توان 100
tungkol 100
назад 100
عدم 100
Eta 100
ثبت 100
Mario 100
roce 100
عمر 100
När 100
शुरू 100
କରିଛନ୍ତି 100
API 100
##ì 100
kaže 100
##чно 100
etsa 100
##կ 100
tanah 100
друг 100
weekend 100
##ర్ 100
vedno 100
##ांना 100
mampu 100
Kota 100
билан 100
פֿון 100
elo 100
கடந்த 100
triệu 100
keur 100
ideas 100
103 100
##ło 100
jossa 100
1973 100
Grande 100
##ля 100
Jr 100
teknik 100
##യെ 100
것은 100
##unk 100
mme 100
bari 100
همراه 100
imong 100
समस्या 100
àwọn 100
##் 100
вона 100
جن 100
አይደለም 100
##tzea 100
mạnh 100
દરેક 100
ក្រុម 100
etwas 100
sisi 100
している 100
offre 100
##ати 100
То 100
750 100
panas 100
ಮಾತ್ರ 100
Fall 100
PR 100
būtų 100
nic 100
oke 100
nipasẹ 100
manier 100
birlikte 100
jim 100
##ө 100
##nym 100
win 100
були 100
ئۇلارنىڭ 100
Ул 100
могат 100
meno 100
Airport 100
panjang 100
більше 100
sendo 100
kho 100
Alla 100
##lega 100
neuen 100
1972 100
செய்து 100
gikan 100
pm 100
##ין 100
dve 100
мешавад 100
گروه 100
cause 100
মোৰ 100
stress 100
ғана 100
##্য 100
altre 100
mezin 100
hak 100
development 100
گرفته 100
individual 100
එහි 100
tala 100
тие 100
آئی 100
새로운 100
aynı 100
match 100
をお 100
наш 100
będą 100
chaque 100
manaʻo 100
produit 100
сделать 100
##되는 100
Network 100
العام 100
būt 100
Ut 100
hala 100
Pierre 100
##تىن 100
oe 100
ಎಸ್ 100
առաջին 100
LinkedIn 100
doesn 100
##დან 100
pergi 100
##oja 100
gedhe 100
especial 100
hapa 100
bener 100
##eng 100
Little 100
nosso 100
results 100
सिंह 100
επίσης 100
komon 100
ilma 100
Royalty 100
khona 100
hynny 100
אחר 100
maraming 100
Centro 100
ប្រទេស 100
məlumat 100
##хои 100
cuid 100
##вання 100
mob 100
yii 100
Oslo 100
байж 100
production 100
があります 100
fått 100
Bình 100
##ö 100
Ona 100
yaitu 100
members 100
personer 100
doing 100
##ön 100
tali 100
времени 100
hekk 100
Sep 100
##lio 100
Portugal 100
##า 100
үр 100
учун 100
mmoja 100
அரசு 100
например 100
##です 100
##их 100
##TE 100
العمل 100
част 100
अगर 100
өөр 100
pari 100
ఇతర 100
दुई 100
unë 100
##ટ 100
##ish 100
##ous 100
ahaa 100
kiện 100
ଭଲ 100
ԱՄՆ 100
kraju 100
haya 100
poste 100
aliaj 100
Hoe 100
##적으로 100
sidlakang 100
##way 100
known 100
##iv 100
##ит 100
##ẹ 100
jusqu 100
medyo 100
##ios 100
olub 100
kiun 100
##zwe 100
##эд 100
hnub 100
Science 100
##skih 100
##ող 100
1968 100
murah 100
ine 100
poker 100
dous 100
##ел 100
rete 100
Dios 100
derfor 100
kinadul 100
vann 100
diện 100
toy 100
egyik 100
Без 100
imali 100
actual 100
ඔබේ 100
faut 100
ਸਮੇਂ 100
##ಸಿ 100
##ral 100
paljon 100
kõige 100
اجتماعی 100
European 100
Nokia 100
Что 100
vier 100
res 100
исто 100
Market 100
nzuri 100
Analytics 100
Văn 100
لقد 100
проблем 100
Toyota 100
##եց 100
##ques 100
rohkem 100
guerra 100
Nutzung 100
##lerini 100
جنگ 100
luôn 100
Catalunya 100
##bil 100
paub 100
programma 100
namun 100
##mann 100
annan 100
geht 100
close 100
बताया 100
eso 100
sahip 100
Mungu 100
бизнес 100
فروش 100
иш 100
أضف 100
Pakistan 100
වැඩි 100
##TA 100
learn 100
aiki 100
sest 100
fy 100
uzun 100
##taan 100
center 100
мекунад 100
##ско 100
րդ 100
deja 100
Аз 100
nia 100
ón 100
சி 100
##iai 100
##eli 100
είχε 100
##nka 100
יום 100
completo 100
છીએ 100
##bare 100
ارائه 100
કરતા 100
एवं 100
##rn 100
Find 100
##áil 100
olish 100
property 100
bizim 100
जारी 100
хувьд 100
##ଟି 100
vực 100
lòng 100
вече 100
ancora 100
##תי 100
לכל 100
mbili 100
μία 100
##னர் 100
арасында 100
систем 100
nganti 100
##য়ে 100
term 100
Videos 100
العالم 100
Sverige 100
yun 100
Ovo 100
ئۇنى 100
puno 100
କେବଳ 100
gehiago 100
བའི 100
آهن 100
Dina 100
map 100
maging 100
kuphela 100
våra 100
current 100
quand 100
ໝາຍ 100
##ね 100
member 100
bakeng 100
acordo 100
LCD 100
##ék 100
eis 100
president 100
IL 100
##сці 100
##ሉ 100
kuidas 100
Euskal 100
스톡 100
##larının 100
href 100
již 100
योजना 100
често 100
سفر 100
toirt 100
everything 100
Alexander 100
Federal 100
алу 100
კიდევ 100
terug 100
auctor 100
##lama 100
nytt 100
кон 100
situation 100
bezwen 100
বেশি 100
কাছে 100
Hotels 100
Nord 100
човек 100
ຄວາມ 100
history 100
Con 100
անգամ 100
##മായ 100
których 100
##वा 100
##ांच्या 100
газар 100
ទៀត 100
##ভাবে 100
Code 100
peuvent 100
Quando 100
##čno 100
မှာ 100
innych 100
ନୁହେଁ 100
באופן 100
##ves 100
ବିଷୟରେ 100
facer 100
##ntes 100
minder 100
तरी 100
sex 100
led 100
gebruiken 100
kuu 100
nature 100
പുതിയ 100
முடியும் 100
student 100
##iza 100
Беларусі 100
bụla 100
जी 100
とは 100
tel 100
എന്നാല് 100
gaba 100
તેથી 100
gihabogon 100
July 100
နှင့် 100
##эн 100
כבר 100
ერთად 100
हर 100
pagal 100
bahasa 100
svi 100
тиеш 100
თამაში 100
building 100
вельмі 100
math 100
සිට 100
लेकर 100
##ann 100
Jawa 100
panel 100
sab 100
яки 100
giáo 100
đình 100
ਰਹੀ 100
мене 100
##ngo 100
τι 100
gir 100
##ਸ 100
continue 100
Minh 100
кард 100
Technology 100
Party 100
assim 100
##vanja 100
March 100
څخه 100
nhỏ 100
##usi 100
##minen 100
stad 100
yakhe 100
низ 100
همین 100
againn 100
sèl 100
우리는 100
различни 100
semakin 100
desta 100
##issa 100
നിങ്ങൾ 100
habang 100
барлық 100
esan 100
مهم 100
robh 100
kinahabogang 100
beda 100
##ونه 100
##ावर 100
tener 100
ಮಾಡಿ 100
##জ 100
veces 100
maakt 100
nossa 100
بزرگ 100
Ban 100
ventana 100
tulad 100
ଏହାର 100
ambiente 100
тим 100
olisi 100
pr 100
##лари 100
వద్ద 100
எம் 100
started 100
Czy 100
ਸਕਦਾ 100
Pre 100
één 100
تعداد 100
üzerinde 100
particular 100
##illa 100
##ნ 100
bya 100
khai 100
पानी 100
thabhairt 100
consequat 100
යන 100
eivät 100
port 100
jouw 100
ತನ್ನ 100
volume 100
gihulagway 100
זי 100
dituzte 100
##ži 100
நாம் 100
tada 100
actually 100
دلیل 100
newydd 100
corpo 100
guztiak 100
resmi 100
##्य 100
lin 100
##نے 100
chứng 100
تنها 100
produktu 100
сез 100
ntawd 100
ਹੋਏ 100
1969 100
central 100
##ವಾದ 100
آمریکا 100
yalnız 100
##ନ୍ 100
žena 100
ovog 100
##اب 100
preto 100
niini 100
כן 100
events 100
Kevin 100
bolj 100
Kuv 100
BÉEä 100
ਕੰਮ 100
Search 100
though 100
பற்றி 100
ئىككى 100
όλα 100
Change 100
бити 100
þó 100
Suid 100
Sports 100
OF 100
શકો 100
тільки 100
ngoba 100
Sarah 100
dunha 100
konto 100
ради 100
PA 100
##화 100
dadka 100
visu 100
מיר 100
waxaana 100
##wania 100
ਕਰਦੇ 100
Andrew 100
ਕਰਕੇ 100
##ள் 100
bob 100
болж 100
шулай 100
ಅದು 100
bermain 100
layanan 100
iawn 100
multaj 100
bereits 100
kontra 100
luam 100
ਬਾਰੇ 100
##اد 100
credit 100
gel 100
ovom 100
##ที่ 100
Iyo 100
अलग 100
nơi 100
mesto 100
several 100
##щи 100
mellem 100
Ман 100
gần 100
сме 100
##ත 100
##зи 100
ਵੱਲੋਂ 100
teknologi 100
txhua 100
kommen 100
сатып 100
buhay 100
eau 100
Vegas 100
lik 100
تیم 100
kahenera 100
ફક્ત 100
සමග 100
twa 100
##ુ 100
رہی 100
##зе 100
ਤੁਹਾਨੂੰ 100
equipo 100
ambaye 100
##ээс 100
nové 100
අද 100
kawm 100
кор 100
vệ 100
Espesye 100
barədə 100
##wch 100
цаг 100
##ский 100
##eti 100
##ści 100
1200 100
Milli 100
##vý 100
nasıl 100
করেছেন 100
ടി 100
mynd 100
##nių 100
ଦ୍ୱାରା 100
gjør 100
begitu 100
##iet 100
stále 100
նաև 100
HIV 100
ještě 100
##या 100
Food 100
Σε 100
זיי 100
1971 100
max 100
Nga 100
mẹ 100
##की 100
half 100
လို့ 100
पूर्ण 100
своей 100
stata 100
услуги 100
##aga 100
kahit 100
عکس 100
informações 100
ہوئی 100
Galicia 100
gjorde 100
truyền 100
Kenya 100
आर्थिक 100
рублей 100
यस 100
arra 100
vuonna 100
ਹੁਣ 100
##ман 100
tras 100
Bij 100
ولی 100
жол 100
##aha 100
government 100
##can 100
national 100
##kite 100
##ña 100
chuẩn 100
##rekin 100
будь 100
Somaliland 100
##ņu 100
##IN 100
Kalau 100
##ση 100
Suba 100
afin 100
ତେବେ 100
##ப்பட்ட 100
nelle 100
Nếu 100
በላይ 100
otro 100
سیاسی 100
trè 100
##ර 100
نقل 100
##adi 100
dut 100
tượng 100
lalaki 100
visas 100
send 100
одного 100
paper 100
الموقع 100
ngeunaan 100
അദ്ദേഹം 100
Boston 100
små 100
existe 100
bayi 100
konnen 100
RT 100
##드 100
кезде 100
aantal 100
Are 100
songs 100
преди 100
Ved 100
olnud 100
bal 100
яшчэ 100
그러나 100
قىلىپ 100
χωρίς 100
Vám 100
Sri 100
obi 100
եթե 100
janten 100
Elizabeth 100
nunc 100
1967 100
Siz 100
جهت 100
##rana 100
Via 100
Spa 100
לעשות 100
haqqında 100
##ਟ 100
yek 100
katanya 100
travel 100
hao 100
شركة 100
મેં 100
pár 100
##ell 100
ორი 100
koliko 100
எந்த 100
pab 100
dễ 100
##ką 100
Unternehmen 100
ແມ່ນ 100
seguir 100
таму 100
##ps 100
mūsu 100
diễn 100
koska 100
Control 100
sĩ 100
тухай 100
kabul 100
өмнө 100
##ść 100
minha 100
minutos 100
usaha 100
času 100
khusus 100
fundit 100
##হ 100
тек 100
ਜੀ 100
ខ្ញុំ 100
106 100
cili 100
nka 100
##ieren 100
##ო 100
كانت 100
chơi 100
##्न 100
જેમ 100
futuro 100
cet 100
##ల్ 100
cea 100
Album 100
бъдат 100
Вас 100
πως 100
Sau 100
دوست 100
thanh 100
ktorí 100
можуть 100
آغاز 100
plusieurs 100
pakati 100
kaki 100
يېڭى 100
##idade 100
Kini 100
vinden 100
##ht 100
uden 100
ମୋର 100
સામાન્ય 100
سىز 100
##vät 100
ଅଟେ 100
чейин 100
سازی 100
hubungan 100
бага 100
doi 100
tiba 100
##ക് 100
ניט 100
mucho 100
pob 100
হিসেবে 100
sarà 100
nge 100
jaroj 100
However 100
##يل 100
##ું 100
cualquier 100
##eka 100
ahli 100
hanggang 100
nafasi 100
##vali 100
đạo 100
Tamil 100
भाग 100
##tí 100
beautiful 100
tidligere 100
##ست 100
tämän 100
Sy 100
Ew 100
enam 100
viser 100
adunay 100
neke 100
##ĝo 100
patag 100
novi 100
Đại 100
naj 100
প্ৰ 100
##لا 100
každý 100
##ంగా 100
pagi 100
##ସ 100
##ции 100
##ća 100
Auf 100
##ses 100
quản 100
ila 100
##ech 100
Ինչպես 100
##ങ്ങൾ 100
##kus 100
المفضلة 100
record 100
chance 100
نو 100
luchd 100
1940 100
moeten 100
nyumba 100
age 100
##дин 100
recensioni 100
kiến 100
السعودية 100
malah 100
haqida 100
fáil 100
qualité 100
gây 100
##tanga 100
برخی 100
##ণ 100
target 100
ਸਾਲ 100
enige 100
menunjukkan 100
სადაც 100
ụzọ 100
решение 100
peyi 100
Hans 100
など 100
aranjeunna 100
resultados 100
ଯେତେବେଳେ 100
خارج 100
مشاهدة 100
olması 100
kuru 100
ସେହି 100
nies 100
##ao 100
##ante 100
стоит 100
##ec 100
කියලා 100
būtu 100
wiele 100
loob 100
##fer 100
жеке 100
dele 100
Simon 100
està 100
unseren 100
nouvo 100
title 100
##σαν 100
ہمارے 100
akoko 100
Ihren 100
bagaimana 100
##lit 100
exemplo 100
sesuatu 100
laten 100
donne 100
Premier 100
لپاره 100
collection 100
##ста 100
inne 100
##elle 100
chan 100
Egy 100
Gen 100
Ελλάδα 100
авч 100
કેટલાક 100
میرے 100
mety 100
hyd 100
##களும் 100
##ط 100
точно 100
vidi 100
върху 100
living 100
oleks 100
egiteko 100
उत्तर 100
bàn 100
Kai 100
teda 100
информации 100
##வர் 100
הרבה 100
iso 100
perkara 100
moni 100
##vas 100
##க 100
नयाँ 100
ekstra 100
##con 100
Golden 100
Amsterdam 100
Ես 100
Rs 100
Honda 100
casos 100
đồ 100
companies 100
món 100
director 100
phakathi 100
добро 100
##ങ്ങള് 100
özel 100
kukhala 100
##lang 100
qabel 100
sätt 100
يكون 100
ከሆነ 100
għandha 100
izinto 100
минут 100
Intel 100
première 100
tagasi 100
жаңа 100
##mia 100
vždy 100
위한 100
ఎక్కువ 100
FM 100
суд 100
uvijek 100
fejn 100
enfants 100
##ത 100
##mak 100
##ува 100
faz 100
##чен 100
##ēt 100
déjà 100
fans 100
Είναι 100
multi 100
لے 100
totonu 100
taj 100
sud 100
##iste 100
doit 100
##တယ် 100
প্রথম 100
rồi 100
ενώ 100
##ская 100
lokale 100
farklı 100
ọna 100
نیاز 100
असते 100
ئەمەس 100
болған 100
viena 100
буй 100
кунед 100
perché 100
proceso 100
kuko 100
customers 100
graag 100
##mai 100
Jim 100
კი 100
ʻoe 100
ضد 100
maidir 100
hale 100
beaucoup 100
بالا 100
ára 100
estaba 100
אחת 100
Like 100
bekerja 100
mnogo 100
olid 100
##су 100
זמן 100
##ées 100
lời 100
exemple 100
арналған 100
müssen 100
Uhr 100
aðeins 100
Kuna 100
дом 100
cửa 100
детей 100
Visa 100
yari 100
کننده 100
hoje 100
tejto 100
artean 100
dll 100
Light 100
##rte 100
keluar 100
dabei 100
##િક 100
пайда 100
compra 100
##kii 100
tama 100
##anna 100
cy 100
Research 100
star 100
zote 100
whai 100
nogle 100
return 100
happy 100
##됩니다 100
##car 100
Project 100
lua 100
cover 100
rokov 100
rebloggato 100
issues 100
Person 100
Chinese 100
##čky 100
kie 100
added 100
arabera 100
security 100
produto 100
steach 100
ishin 100
nggunakake 100
nguyên 100
##υς 100
Ничек 100
EA 100
hebt 100
haholo 100
##nici 100
index 100
をご 100
##ligt 100
wilayah 100
лише 100
carte 100
Amma 100
mio 100
આપણે 100
Ми 100
digər 100
Тоҷикистон 100
iarraidh 100
tarde 100
Foundation 100
प्रदान 100
giver 100
hasi 100
chéad 100
часу 100
واقع 100
near 100
môžu 100
PT 100
Golf 100
##ING 100
RAM 100
tani 100
faktor 100
aínda 100
కి 100
ཡིན 100
동안 100
thought 100
alatt 100
##ថា 100
lau 100
ст 100
##ום 100
doğru 100
##jem 100
يوم 100
trabajo 100
kanak 100
ಪ್ರತಿ 100
angen 100
olmak 100
TO 100
ٿي 100
Wakati 100
##ම් 100
##ını 100
AB 100
Institute 100
Abu 100
tiam 100
నాకు 100
stil 100
given 100
روش 100
realmente 100
##년 100
خو 100
##ito 100
Có 100
Avenue 100
seen 100
##hy 100
મારી 100
1930 100
എല്ലാ 100
अहिले 100
provided 100
chiến 100
berlaku 100
Ah 100
##원 100
Ora 100
ära 100
लिया 100
WiFi 100
sales 100
##ligi 100
дән 100
Haz 100
hakkında 100
durant 100
isu 100
gelek 100
ym 100
ਸਰਕਾਰ 100
strony 100
ngaphandle 100
gwneud 100
zina 100
centra 100
uku 100
કરવાની 100
VIP 100
eens 100
ལས 100
ekonomi 100
арга 100
cam 100
Virginia 100
##rus 100
Car 100
قال 100
##ību 100
bwo 100
Check 100
स्थानीय 100
vuoden 100
similar 100
yeri 100
jobb 100
wurdt 100
study 100
Family 100
toujou 100
ਆਪਣੀ 100
რომელსაც 100
jiġu 100
##ил 100
Edward 100
dnes 100
mpya 100
bwino 100
PP 100
deal 100
Ef 100
##క్ 100
##श 100
Και 100
##iau 100
siempre 100
early 100
favorite 100
kawasan 100
aikana 100
መካከል 100
charge 100
##гийн 100
ishlab 100
jedno 100
stellen 100
үз 100
ගැනීමට 100
mij 100
हमारे 100
outra 100
##jet 100
אנחנו 100
kogu 100
##وي 100
צריך 100
##во 100
##dad 100
##erd 100
int 100
մոտ 100
##eur 100
mí 100
sɛ 100
tempor 100
centrum 100
있으며 100
kojima 100
##sson 100
Or 100
dzieci 100
##گی 100
valamint 100
করেছে 100
هزار 100
##tada 100
##ಂತೆ 100
ਪੰਜਾਬ 100
երկու 100
кийин 100
double 100
Pedro 100
зур 100
Daar 100
Luis 100
havia 100
##৷ 100
அதை 100
lah 100
khiến 100
maneh 100
असलेल्या 100
##ቱ 100
яна 100
##ük 100
ତାହା 100
Եթե 100
байланысты 100
sil 100
nimi 100
क्योंकि 100
##ांनी 100
Ano 100
Band 100
cáo 100
##ının 100
येथे 100
ደግሞ 100
##ئي 100
##jar 100
වන්නේ 100
aire 100
રહ્યા 100
published 100
ಎಲ್ಲಾ 100
Một 100
također 100
107 100
Dheweke 100
##ota 100
##burg 100
Ryan 100
yihiin 100
##noj 100
kara 100
bas 100
നിങ്ങളുടെ 100
İstanbul 100
##лік 100
иң 100
tuku 100
##OS 100
Kaibigan 100
बंद 100
selepas 100
French 100
Fort 100
recherche 100
##€ 100
Hari 100
meaning 100
hvert 100
bizi 100
procent 100
Estas 100
więc 100
пен 100
##до 100
liste 100
visita 100
tämä 100
Pan 100
idir 100
##лик 100
uang 100
កម្ពុជា 100
heart 100
lorem 100
своите 100
##enie 100
eyi 100
##sed 100
दौरान 100
wahi 100
اصلی 100
Kaya 100
klub 100
##лен 100
among 100
vode 100
کمک 100
tulaga 100
jednu 100
tetep 100
ien 100
নাম 100
1965 100
fou 100
זיין 100
उनकी 100
##nega 100
##IS 100
части 100
tjera 100
kaluar 100
##ത്തിന്റെ 100
pengalaman 100
uyu 100
súas 100
fear 100
voidaan 100
също 100
Vai 100
##し 100
Lagu 100
જાય 100
estilo 100
وارد 100
recursos 100
barra 100
##ють 100
lassen 100
Forex 100
čak 100
##ngu 100
biste 100
teny 100
##ए 100
тях 100
రూ 100
minuta 100
sto 100
##లకు 100
users 100
pisan 100
akhir 100
##rwa 100
хийж 100
came 100
##gy 100
वाली 100
##ಲ್ 100
##লে 100
##nės 100
gelen 100
##М 100
##ие 100
fá 100
Jūs 100
##ే 100
issue 100
पूर्व 100
master 100
##ಟ್ 100
element 100
eri 100
Како 100
hartu 100
Liverpool 100
industri 100
ምንም 100
renmen 100
Name 100
кај 100
vremena 100
##յան 100
Also 100
wou 100
ବ୍ୟବହାର 100
بل 100
##מות 100
जैसे 100
ثم 100
hatte 100
attività 100
##ových 100
خدا 100
##aya 100
##ване 100
SP 100
सुरु 100
lors 100
ئارقىلىق 100
##ете 100
##들이 100
aici 100
aftur 100
cổ 100
tujuan 100
ସହ 100
toto 100
maisha 100
سکتے 100
दोनों 100
##ത്തില് 100
வரும் 100
جانے 100
gjennom 100
##ëve 100
septembre 100
Netflix 100
circa 100
මහතා 100
Public 100
afọ 100
iktar 100
것으로 100
לנו 100
поэтому 100
አስፈላጊ 100
parantos 100
bene 100
brez 100
다시 100
güzel 100
##tų 100
яхшы 100
Lord 100
Ama 100
##تے 100
جانب 100
ملف 100
خىل 100
related 100
mauris 100
কৰিবল 100
someone 100
могу 100
دوره 100
neće 100
ذریعہ 100
tým 100
शामिल 100
##ای 100
Main 100
Fa 100
##น 100
zonder 100
##ðu 100
yüksek 100
paha 100
cứu 100
بها 100
musim 100
newsletter 100
Argentina 100
pH 100
pages 100
करत 100
##aza 100
ntse 100
selbst 100
تېخىمۇ 100
sát 100
##ቶች 100
altro 100
želite 100
anali 100
dema 100
utiliza 100
##žu 100
##ታ 100
productos 100
##owa 100
5G 100
Ohio 100
male 100
Hay 100
ٹی 100
##lag 100
wneud 100
##일 100
Ed 100
Spring 100
դուք 100
energy 100
135 100
Inggris 100
sens 100
лучше 100
##пен 100
taon 100
##acha 100
укыла 100
vastu 100
##ful 100
MA 100
итеп 100
mendapat 100
##ас 100
Más 100
##чни 100
ਪਹਿਲਾਂ 100
herî 100
مدد 100
czas 100
Fig 100
CO2 100
gwaith 100
jūsu 100
##ానికి 100
చేయడానికి 100
mene 100
cyo 100
rhai 100
ве 100
తర్వాత 100
##ве 100
bih 100
labi 100
true 100
ആണ് 100
viết 100
mennesker 100
بررسی 100
صاحب 100
##čke 100
punika 100
klar 100
##ré 100
bietet 100
ennen 100
សម្រាប់ 100
thuộc 100
seni 100
אָנליין 100
Má 100
##دى 100
される 100
служба 100
##한다 100
khó 100
##یم 100
केवल 100
مانند 100
حد 100
Albert 100
##ција 100
Comment 100
جمع 100
jeśli 100
Church 100
##lus 100
hir 100
finde 100
##dal 100
##iad 100
##ген 100
ሁሉ 100
muka 100
##သော 100
રહી 100
പ്രവര് 100
Ech 100
privacy 100
करू 100
Scholar 100
جهان 100
##llä 100
terdapat 100
lợi 100
போன்ற 100
さん 100
##stvo 100
homoj 100
##ნის 100
##nzi 100
midagi 100
ជាមួយ 100
portal 100
ከፍተኛ 100
##сті 100
მის 100
weitere 100
않습니다 100
annat 100
1944 100
##ES 100
दिए 100
banjur 100
כאן 100
laŭ 100
இன்று 100
##नी 100
చెప్పారు 100
clear 100
यहां 100
მომხმარებლის 100
kapag 100
waard 100
ਅੱਜ 100
Information 100
ftit 100
цел 100
परंतु 100
ใน 100
خانه 100
Pak 100
عند 100
365 100
vilket 100
kodu 100
190 100
ваш 100
Daily 100
zone 100
landet 100
ఎలా 100
tijdens 100
exe 100
Türk 100
པར 100
বুলি 100
ਜਦੋਂ 100
кебек 100
geta 100
säger 100
տեղի 100
بنا 100
Kuring 100
etahi 100
ምን 100
ਲੋਕਾਂ 100
መጠን 100
brug 100
premye 100
зі 100
##ard 100
hea 100
inden 100
Wall 100
##ium 100
took 100
cei 100
yote 100
आम्ही 100
taken 100
деца 100
Eiropas 100
ને 100
Town 100
##ör 100
дней 100
ulasan 100
books 100
یہاں 100
വളരെ 100
Nakon 100
عبد 100
naam 100
áður 100
Pou 100
gov 100
primo 100
ʻaʻole 100
эти 100
Nov 100
pouze 100
каршы 100
mugihe 100
##vin 100
##லாம் 100
##تی 100
ọmọ 100
కొత్త 100
iTunes 100
energie 100
منابع 100
היום 100
שני 100
Ieu 100
ასე 100
##lja 100
Xbox 100
Station 100
Durch 100
##jat 100
duzu 100
traballo 100
ఇప్పుడు 100
ÑyÑu 100
peste 100
gemaakt 100
Të 100
##ଙ୍କୁ 100
##ének 100
જરૂર 100
által 100
وهو 100
##ici 100
pool 100
livre 100
haft 100
दिली 100
Next 100
šta 100
##vať 100
##log 100
##П 100
гана 100
qiladi 100
##ding 100
tubuh 100
fact 100
Will 100
ہوتی 100
##ള് 100
qeyd 100
त्यो 100
allen 100
##ības 100
ਸਭ 100
ཞིག 100
festa 100
Со 100
rive 100
##они 100
السلام 100
üçin 100
Daha 100
estava 100
그는 100
Image 100
bort 100
đưa 100
Tako 100
anders 100
109 100
posta 100
##ında 100
Bad 100
naon 100
tae 100
##fen 100
##MA 100
##な 100
гэтага 100
##ун 100
##َ 100
ngenxa 100
NBA 100
xác 100
ersten 100
realizar 100
Kur 100
וואס 100
langt 100
prieš 100
five 100
##מים 100
توانید 100
Plan 100
##ev 100
##lardan 100
musik 100
Some 100
олар 100
нови 100
کردند 100
kunna 100
period 100
شکل 100
whole 100
##ير 100
життя 100
Last 100
былі 100
მეტი 100
##ụ 100
##ego 100
ndeleng 100
IS 100
Manuel 100
meni 100
##ù 100
##ára 100
lejn 100
snel 100
гә 100
Santiago 100
fu 100
حضرت 100
vanaf 100
ένας 100
beter 100
tekst 100
Chi 100
এমন 100
##ða 100
дигар 100
leven 100
##eo 100
කටයුතු 100
দুই 100
chống 100
imma 100
Ray 100
##り 100
momba 100
trực 100
##oma 100
kendi 100
##তি 100
буенча 100
amelyek 100
ئوخشاش 100
ክፍል 100
عَلَيْهِ 100
##uru 100
році 100
shows 100
##К 100
سیستم 100
##wych 100
##ች 100
dekat 100
prova 100
hvað 100
honetan 100
##miseks 100
дни 100
Hun 100
దాని 100
kutumia 100
HR 100
أنه 100
##wane 100
##দ 100
mọ 100
Papa 100
Diego 100
România 100
nguva 100
October 100
4000 100
##wanie 100
tatau 100
Dictionary 100
Hij 100
gegevens 100
nganggo 100
Profil 100
Ўзбекистон 100
##bb 100
اللَّهُ 100
indrindra 100
natura 100
возможность 100
Patrick 100
depois 100
mẫu 100
שלהם 100
ହେବ 100
എന്റെ 100
dalje 100
đủ 100
Community 100
baten 100
field 100
biaya 100
بیش 100
Care 100
cours 100
##දී 100
present 100
මගේ 100
каде 100
zamanda 100
##ય 100
Här 100
wangu 100
##nk 100
Sampeyan 100
##ங்களை 100
první 100
oil 100
320 100
якая 100
باز 100
bieten 100
അല്ലെങ്കിൽ 100
ڈی 100
went 100
parece 100
Todos 100
##ncia 100
Hội 100
جان 100
બધા 100
өте 100
##ip 100
bỏ 100
լավ 100
enjoy 100
ముందు 100
##ек 100
bħal 100
##тары 100
UN 100
##uti 100
##ນ 100
screen 100
##har 100
પ્રથમ 100
##tua 100
##rta 100
AP 100
Indian 100
Türkmenistanyň 100
باب 100
Motor 100
اثر 100
avons 100
Jose 100
hold 100
دارای 100
yicha 100
کل 100
##ű 100
tablet 100
قىلغان 100
##tiva 100
siyang 100
##esi 100
Kada 100
works 100
sắc 100
##ția 100
##ത്തിന് 100
driver 100
الأسعار 100
そして 100
använder 100
بشكل 100
display 100
අනුව 100
bunu 100
solution 100
raz 100
শেষ 100
##swa 100
kap 100
слова 100
१० 100
Bundan 100
##ார் 100
Limited 100
νέα 100
علم 100
marrë 100
Bild 100
rua 100
provides 100
katta 100
друга 100
மீது 100
etmek 100
##kę 100
potrebno 100
această 100
##ா 100
उनको 100
بولسا 100
আপুনি 100
##ੂ 100
persoas 100
Lady 100
##гу 100
našich 100
Why 100
Kodwa 100
##inu 100
tinh 100
##aí 100
##ına 100
sien 100
dha 100
rangi 100
informacji 100
ўсё 100
Гэхдээ 100
ارشد 100
nhiệm 100
##bat 100
iyon 100
kabisa 100
жакшы 100
Bydd 100
léir 100
##த்து 100
##ĝis 100
више 100
wae 100
menn 100
##čna 100
hen 100
phong 100
کنم 100
ლექსიკონი 100
fem 100
barcha 100
young 100
dài 100
gøre 100
behöver 100
flash 100
nekā 100
Eric 100
läbi 100
daw 100
##čių 100
دستگاه 100
##mes 100
Jalan 100
##Д 100
loc 100
cool 100
##gia 100
ساعت 100
været 100
1941 100
gain 100
έναν 100
бораи 100
postal 100
болсо 100
Hospital 100
عَلَى 100
Carolina 100
selon 100
Европа 100
lengkap 100
ему 100
bởi 100
isla 100
почти 100
##ség 100
Lista 100
##ojn 100
crear 100
##ella 100
sot 100
मोदी 100
##ая 100
Tony 100
##ル 100
processo 100
количество 100
אנו 100
dung 100
Garden 100
##yň 100
aron 100
believe 100
##dagi 100
##Т 100
possibile 100
حتی 100
nostri 100
mỗi 100
сейчас 100
parents 100
নয় 100
##នេះ 100
ვიდრე 100
COM 100
günü 100
specific 100
Muhammad 100
##dwa 100
anden 100
דבר 100
##тен 100
verða 100
kasus 100
wi 100
টাকা 100
খুব 100
μέχρι 100
ма 100
jste 100
цьому 100
##mų 100
##ਦਾ 100
Россия 100
significa 100
Oktober 100
نسبت 100
suatu 100
agosto 100
##ám 100
dk 100
forhold 100
fatto 100
sejak 100
гэтым 100
saxlayın 100
droit 100
काठमाडौं 100
##ған 100
langkah 100
SC 100
Ca 100
mogli 100
ولكن 100
lett 100
People 100
તેમને 100
nice 100
third 100
wy 100
Friday 100
##olo 100
piano 100
คือ 100
glede 100
Matt 100
temat 100
##lne 100
putem 100
##ब 100
lelaki 100
##tek 100
##wr 100
vini 100
AT 100
hizo 100
##iset 100
##ize 100
dwa 100
mavjud 100
नेता 100
##ща 100
până 100
##ża 100
230 100
здесь 100
турган 100
bezala 100
ତୁମର 100
icon 100
##ár 100
طراحی 100
гол 100
منطقه 100
encontrar 100
altra 100
talk 100
তো 100
kids 100
##య 100
última 100
baka 100
akik 100
vaega 100
boa 100
શરૂ 100
زمین 100
tellus 100
మధ్య 100
protection 100
##ونو 100
direkte 100
všetky 100
giữa 100
אנשים 100
##ema 100
малко 100
ہوگا 100
rest 100
Bilder 100
பின்னர் 100
ابن 100
компания 100
dưới 100
Singapore 100
niyang 100
jangan 100
etdi 100
кандай 100
przypadku 100
vari 100
ունի 100
какво 100
چیز 100
Audio 100
profile 100
liq 100
##dus 100
##И 100
الشخصي 100
##тся 100
dest 100
Milan 100
Wilson 100
mentre 100
##ಿಗೆ 100
lavoro 100
hef 100
Fox 100
மட்டுமே 100
Society 100
tỷ 100
Они 100
dove 100
##vy 100
გვერდი 100
pin 100
##ವಾಗಿದೆ 100
Lakini 100
##tz 100
bada 100
رئیس 100
всё 100
þessum 100
último 100
##ža 100
च्या 100
##nne 100
କି 100
##bles 100
لیا 100
doma 100
cliente 100
##jąc 100
certain 100
##cję 100
Од 100
laptop 100
##ről 100
amit 100
Qué 100
නැත 100
views 100
gør 100
помощью 100
##tive 100
געווען 100
tambahan 100
chia 100
1900 100
Chelsea 100
ଏହାକୁ 100
##dra 100
plans 100
পারেন 100
mp4 100
##нун 100
NATO 100
karya 100
እስከ 100
бусад 100
memilih 100
பெரிய 100
Detta 100
abu 100
téh 100
وفي 100
pir 100
ບໍ່ 100
ខ្លួន 100
chiar 100
##ләре 100
Tam 100
práce 100
unaweza 100
Kurdistanê 100
проект 100
##lni 100
heute 100
track 100
disponible 100
Jekk 100
habari 100
چوڭ 100
##ným 100
Auch 100
geven 100
bawat 100
países 100
1964 100
##פים 100
भयो 100
yol 100
GHz 100
다양한 100
případě 100
באמצעות 100
buah 100
Vista 100
réir 100
anterior 100
дело 100
nid 100
གསར 100
kasance 100
مشکل 100
acum 100
menerima 100
hết 100
انہیں 100
##اں 100
જેમાં 100
Price 100
##xe 100
pala 100
Pe 100
គ្នា 100
tất 100
##gis 100
بهترین 100
soon 100
##יק 100
гэдэг 100
ગયા 100
bästa 100
ਲੈ 100
##ttu 100
игра 100
qenë 100
varit 100
##ُ 100
Ikiwa 100
##ngi 100
wbr 100
passer 100
##ವ 100
좋은 100
rhan 100
Thanks 100
fydd 100
таны 100
služby 100
بے 100
пад 100
metode 100
maro 100
vårt 100
##ნი 100
Fotografie 100
transfer 100
##ovat 100
Tout 100
czyli 100
##ška 100
אלה 100
kjer 100
বাংলাদেশ 100
Cara 100
chete 100
iaitu 100
dad 100
tepat 100
##° 100
fund 100
##ရဲ့ 100
ስለ 100
##eke 100
کوي 100
tanggal 100
##ਦੇ 100
kabungtoran 100
gero 100
సినిమా 100
tots 100
##ما 100
ऐसा 100
miesto 100
فوق 100
هڪ 100
Area 100
hafði 100
Jehovah 100
gani 100
استخدام 100
biyu 100
##нето 100
##EN 100
mapa 100
aldrig 100
لائن 100
##ీ 100
##ím 100
##гө 100
così 100
нар 100
##ism 100
[...]
